<unk>	0
<s>	0
</s>	0
,	-3.13085
.	-3.34745
▁the	-3.68679
s	-4.10618
▁in	-4.25989
▁of	-4.33399
▁die	-4.42448
▁and	-4.43927
▁der	-4.47707
▁to	-4.49648
▁und	-4.51514
▁a	-4.86578
-	-4.94238
en	-4.99313
▁is	-5.14426
e	-5.22515
▁zu	-5.40435
▁that	-5.40895
▁	-5.44407
▁for	-5.44946
▁den	-5.50282
▁von	-5.51045
n	-5.52208
▁ist	-5.66866
▁für	-5.70649
▁on	-5.72244
▁be	-5.75582
▁mit	-5.81538
▁an	-5.81703
▁with	-5.84152
▁auf	-5.84286
▁das	-5.84344
▁The	-5.87331
▁I	-5.90219
▁are	-5.91228
▁des	-5.92687
▁(	-5.9418
er	-5.96788
▁eine	-6.00214
▁this	-6.0565
▁im	-6.07741
▁as	-6.08949
▁Sie	-6.10927
▁nicht	-6.12375
▁ein	-6.13031
▁we	-6.152
▁it	-6.15579
▁-	-6.17103
:	-6.17997
▁werden	-6.18036
▁by	-6.21343
▁have	-6.2282
▁dem	-6.2353
▁not	-6.24491
▁dass	-6.26276
▁sich	-6.26442
▁Die	-6.27515
)	-6.28427
▁you	-6.28779
▁wir	-6.29111
'	-6.29629
▁es	-6.32155
▁will	-6.33368
▁which	-6.37574
▁auch	-6.39985
▁was	-6.41671
t	-6.42164
▁from	-6.42787
ing	-6.44197
▁sind	-6.47987
▁at	-6.50874
▁or	-6.52627
▁wird	-6.54058
▁In	-6.54372
▁has	-6.54916
r	-6.63502
d	-6.63799
▁als	-6.65796
▁um	-6.66229
ed	-6.67099
▁über	-6.67168
▁all	-6.67914
▁can	-6.68435
▁ich	-6.6914
▁oder	-6.71172
es	-6.71462
▁so	-6.73683
▁our	-6.75304
▁also	-6.75669
▁European	-6.75838
▁haben	-6.77219
▁"	-6.80494
▁aus	-6.82562
▁hat	-6.82848
▁einer	-6.84483
▁sie	-6.84622
▁wie	-6.8529
?	-6.89288
▁zur	-6.91822
▁bei	-6.92996
▁Union	-6.95872
!	-6.96423
▁einen	-6.96769
▁Das	-6.97764
▁We	-6.99123
▁your	-7.00088
▁Ich	-7.04928
▁können	-7.04956
▁but	-7.07091
▁nach	-7.10887
▁A	-7.11856
▁would	-7.12
▁its	-7.12224
▁am	-7.12887
▁–	-7.13578
▁more	-7.14041
m	-7.14304
▁their	-7.14349
▁einem	-7.15142
’	-7.17742
▁durch	-7.18067
a	-7.18415
▁Wir	-7.18992
/	-7.18998
▁diese	-7.19738
"	-7.1974
▁been	-7.19846
▁zum	-7.20266
▁uns	-7.20542
▁vor	-7.20639
▁It	-7.20919
▁This	-7.21181
▁Mr	-7.2232
▁nur	-7.22492
▁one	-7.22599
▁EU	-7.23648
▁should	-7.25237
;	-7.25876
▁kann	-7.26468
ly	-7.28754
▁Der	-7.3017
▁dieser	-7.33086
▁Es	-7.33661
▁Commission	-7.34065
▁Kommission	-7.34079
▁de	-7.34682
▁do	-7.35335
▁er	-7.35881
▁very	-7.36648
▁must	-7.36757
▁daß	-7.37985
o	-7.38533
y	-7.39269
▁new	-7.40356
▁other	-7.40905
▁there	-7.41007
▁noch	-7.41139
in	-7.42081
▁Hotel	-7.42358
▁wurde	-7.42495
▁they	-7.4268
▁time	-7.44837
▁only	-7.45379
▁like	-7.45915
▁President	-7.45957
▁Herr	-7.46371
▁aber	-7.4674
▁.	-7.46897
▁about	-7.48209
▁wenn	-7.4901
▁sein	-7.50653
▁sehr	-7.52097
▁müssen	-7.52783
▁man	-7.53472
▁war	-7.54982
▁no	-7.56643
▁S	-7.5787
▁who	-7.58137
▁these	-7.58611
▁up	-7.58677
▁,	-7.60323
▁us	-7.62243
▁diesem	-7.62956
i	-7.64429
▁if	-7.6459
▁mehr	-7.66112
▁alle	-7.66646
▁out	-7.67032
▁Europäischen	-7.67524
▁any	-7.67866
▁people	-7.69965
▁Europe	-7.70707
▁were	-7.71547
▁into	-7.71968
▁Parliament	-7.72202
de	-7.72222
▁unter	-7.73143
▁bis	-7.74119
▁möchte	-7.74225
ung	-7.7442
▁such	-7.75758
▁well	-7.76005
▁what	-7.77953
▁report	-7.78183
▁States	-7.78519
▁Member	-7.78823
).	-7.79557
▁need	-7.80365
▁my	-7.81229
▁2	-7.81751
▁countries	-7.81857
▁than	-7.82108
te	-7.82213
▁his	-7.82276
▁vom	-7.82775
al	-7.82956
▁ihre	-7.83203
▁when	-7.83579
▁use	-7.83984
B	-7.85123
▁work	-7.85599
▁Präsident	-7.85895
▁Council	-7.8602
▁first	-7.8617
▁Bericht	-7.86207
▁sowie	-7.86287
▁some	-7.86461
▁make	-7.86467
▁most	-7.86548
S	-7.86606
▁E	-7.86726
▁1	-7.88911
▁he	-7.89508
▁gibt	-7.90086
▁now	-7.90407
▁hier	-7.9075
▁eines	-7.90752
▁hotel	-7.90853
▁important	-7.91038
▁B	-7.91044
▁many	-7.91062
ten	-7.91224
▁between	-7.91781
▁dieses	-7.92189
▁over	-7.92653
▁them	-7.93637
▁take	-7.93752
▁because	-7.94661
▁zwischen	-7.94669
▁Parlament	-7.95763
g	-7.97303
▁muss	-7.97399
▁unsere	-7.98638
▁un	-7.99523
▁keine	-8.00281
▁3	-8.00287
re	-8.0042
z	-8.00465
k	-8.0093
▁information	-8.01557
st	-8.0163
▁support	-8.0275
▁two	-8.0278
▁Ihnen	-8.03034
▁„	-8.03216
▁re	-8.03467
▁ver	-8.04019
▁Europa	-8.04031
▁just	-8.04161
▁had	-8.04653
▁made	-8.04783
▁ab	-8.05537
▁way	-8.05541
▁C	-8.05817
▁anderen	-8.06051
▁years	-8.06118
A	-8.06188
th	-8.06243
▁Im	-8.06491
▁world	-8.07334
▁If	-8.07486
▁da	-8.07508
▁Ein	-8.07546
▁those	-8.07716
l	-8.08466
▁Mitgliedstaaten	-8.08499
▁s	-8.08659
),	-8.09348
▁Zeit	-8.09655
▁where	-8.10504
▁immer	-8.11324
▁policy	-8.11771
▁Wenn	-8.12594
...	-8.12798
▁'	-8.12886
▁dann	-8.1309
h	-8.13683
or	-8.14202
▁being	-8.14541
▁system	-8.14716
den	-8.15075
▁“	-8.15164
▁G	-8.16269
be	-8.16594
▁may	-8.16637
▁Entwicklung	-8.16667
▁damit	-8.16804
▁good	-8.17015
F	-8.17244
▁part	-8.17341
▁As	-8.18021
▁gegen	-8.18083
▁even	-8.18126
▁diesen	-8.18166
an	-8.18699
▁right	-8.18799
▁wurden	-8.18824
▁Frau	-8.19446
ge	-8.1946
▁Diese	-8.19587
▁order	-8.20845
▁area	-8.21795
▁For	-8.22834
▁Ihre	-8.23459
▁F	-8.23856
▁...	-8.24142
▁unserer	-8.24156
▁year	-8.2429
▁An	-8.24641
D	-8.24929
▁Europäische	-8.25017
▁Rat	-8.25153
▁habe	-8.25194
c	-8.25415
▁here	-8.25634
▁seine	-8.25955
▁sondern	-8.26223
▁place	-8.2687
▁market	-8.27205
▁Menschen	-8.27693
▁jedoch	-8.27758
f	-8.27781
▁neue	-8.27961
▁You	-8.28024
▁through	-8.28115
▁me	-8.28286
▁K	-8.29115
▁possible	-8.2954
▁same	-8.297
▁ge	-8.29788
▁see	-8.29946
b	-8.29961
C	-8.2998
▁after	-8.302
▁want	-8.30606
“	-8.30863
▁own	-8.30892
▁e	-8.31195
▁5	-8.31195
▁could	-8.31625
▁zwei	-8.32219
▁So	-8.32455
▁heute	-8.32498
▁Jahr	-8.32811
▁political	-8.3299
▁development	-8.33045
▁find	-8.33197
▁There	-8.33462
▁Er	-8.33604
▁4	-8.33623
▁Welt	-8.33672
▁D	-8.33895
▁economic	-8.34194
ers	-8.3496
▁international	-8.35627
▁within	-8.35649
▁P	-8.35865
▁bereits	-8.36772
▁Mit	-8.36834
▁Ver	-8.36884
▁both	-8.36954
▁against	-8.37343
▁rights	-8.37646
▁much	-8.37706
▁mich	-8.37761
▁sollte	-8.37843
▁10	-8.3805
us	-8.38484
▁used	-8.38738
▁therefore	-8.38897
▁T	-8.38907
▁how	-8.39222
▁ihrer	-8.39461
com	-8.39473
”	-8.39945
▁andere	-8.40075
▁high	-8.40206
u	-8.40248
▁public	-8.40318
▁ohne	-8.40442
▁europäischen	-8.40463
▁la	-8.40611
▁neuen	-8.40713
▁under	-8.40822
▁selbst	-8.41017
▁point	-8.41327
▁does	-8.41473
▁M	-8.41598
2	-8.41844
to	-8.41924
▁Jahren	-8.4202
▁Be	-8.42212
ation	-8.42246
▁Frage	-8.42429
▁country	-8.42517
▁ganz	-8.43233
▁number	-8.43334
em	-8.43653
K	-8.43916
le	-8.43932
ar	-8.44358
▁without	-8.44361
able	-8.44479
▁fact	-8.44577
▁wieder	-8.44807
▁still	-8.44954
▁great	-8.45238
▁view	-8.45742
▁free	-8.45881
▁last	-8.46011
▁sollten	-8.46404
▁Land	-8.4673
▁finden	-8.47182
▁long	-8.4723
et	-8.47409
p	-8.47561
▁social	-8.47707
▁know	-8.47757
w	-8.47781
▁services	-8.47785
P	-8.48071
▁per	-8.48811
▁different	-8.49121
▁say	-8.49202
▁available	-8.49256
▁Re	-8.4948
▁room	-8.50029
▁bietet	-8.50376
▁To	-8.50598
▁believe	-8.51493
▁viele	-8.5152
▁dazu	-8.51562
▁ob	-8.51845
▁before	-8.52749
G	-8.52858
▁future	-8.52971
▁liegt	-8.53058
▁machen	-8.53202
▁weil	-8.53606
▁Unternehmen	-8.5363
▁already	-8.53645
ch	-8.54354
▁human	-8.54427
▁end	-8.54538
▁course	-8.54623
▁national	-8.54681
▁Aus	-8.54931
▁service	-8.55119
▁able	-8.55318
x	-8.55453
▁get	-8.55642
▁Arbeit	-8.56129
▁m	-8.56357
▁Auf	-8.56407
▁today	-8.56427
▁think	-8.56482
▁That	-8.56489
der	-8.5711
▁pro	-8.57161
▁jetzt	-8.57225
▁He	-8.57704
▁All	-8.57707
▁einige	-8.57862
▁Lage	-8.58017
▁process	-8.58068
▁best	-8.58074
▁wo	-8.58193
ver	-8.58348
▁allen	-8.58512
▁Recht	-8.58535
▁products	-8.58544
▁data	-8.58697
▁darauf	-8.58728
▁denen	-8.5877
▁set	-8.58783
▁too	-8.58868
▁seiner	-8.5894
▁cannot	-8.59507
▁case	-8.59648
▁geht	-8.59898
▁schon	-8.60124
▁her	-8.60132
▁Maßnahmen	-8.60419
▁d	-8.61091
▁Bereich	-8.6114
▁Informationen	-8.61463
T	-8.61732
it	-8.62018
▁Art	-8.62575
▁bin	-8.62582
▁18	-8.62605
▁level	-8.62709
ischen	-8.62721
▁dafür	-8.62777
▁But	-8.62964
ne	-8.63039
▁20	-8.63126
▁question	-8.63135
▁Commissioner	-8.63282
▁offers	-8.63875
E	-8.6423
▁Internet	-8.64281
▁ihr	-8.64473
▁denn	-8.64524
▁Stadt	-8.64992
▁financial	-8.65139
▁Herrn	-8.65162
▁city	-8.65166
ic	-8.65198
▁N	-8.65356
▁Jahre	-8.65561
▁day	-8.65624
▁&	-8.65669
▁during	-8.65776
▁Zimmer	-8.65809
▁issue	-8.65836
▁%	-8.66207
▁small	-8.6628
▁said	-8.66411
ieren	-8.66562
▁L	-8.66643
▁du	-8.66727
▁V	-8.67031
▁meine	-8.67031
▁[[	-8.67057
▁proposal	-8.67094
▁Eine	-8.67106
▁allem	-8.67205
▁example	-8.67227
▁Euro	-8.67325
sten	-8.67483
▁access	-8.67679
▁H	-8.67758
▁help	-8.68148
▁ihren	-8.682
is	-8.6851
▁means	-8.68692
▁Wie	-8.68806
▁mir	-8.68877
on	-8.69025
▁situation	-8.69044
▁Daten	-8.69135
▁every	-8.69135
▁Ab	-8.69141
▁clear	-8.69167
▁debate	-8.69212
▁O	-8.69268
ity	-8.69515
▁quality	-8.69605
▁Teil	-8.69662
▁en	-8.69722
▁since	-8.69772
▁viel	-8.69831
▁business	-8.70246
W	-8.70547
3	-8.71082
▁15	-8.71097
▁However	-8.71288
▁Für	-8.71435
ter	-8.71443
▁wollen	-8.71485
▁würde	-8.71998
▁far	-8.72088
▁offer	-8.72268
M	-8.72314
▁6	-8.72415
▁Our	-8.72503
▁Rahmen	-8.72659
▁real	-8.72721
ll	-8.72798
▁Bei	-8.72834
▁unseren	-8.72889
▁rooms	-8.72895
▁particular	-8.73024
▁gut	-8.7317
▁each	-8.73186
at	-8.73759
▁At	-8.73764
▁including	-8.73799
▁Committee	-8.73823
▁On	-8.74088
▁W	-8.7422
▁während	-8.75104
V	-8.7537
▁Bürger	-8.75414
H	-8.75648
5	-8.75698
▁give	-8.75805
▁möglich	-8.75938
▁Vor	-8.75943
▁R	-8.76147
▁three	-8.76195
▁Ziel	-8.76279
ion	-8.76525
▁seit	-8.76536
▁common	-8.76623
▁And	-8.76642
▁sagen	-8.76688
▁nun	-8.76713
um	-8.76868
▁weiter	-8.76888
▁Und	-8.77045
▁etwas	-8.77106
▁Nach	-8.77139
▁next	-8.77234
▁La	-8.77476
▁doch	-8.77521
▁provide	-8.77535
▁measures	-8.77651
▁problem	-8.77982
▁few	-8.78048
▁large	-8.78112
▁Um	-8.78318
na	-8.78507
ta	-8.78669
▁go	-8.78705
iert	-8.78776
▁come	-8.78942
▁back	-8.7897
▁agreement	-8.79113
▁China	-8.79546
▁Länder	-8.7958
el	-8.79633
▁energy	-8.7966
▁ersten	-8.79782
R	-8.79895
▁put	-8.80025
▁areas	-8.80214
▁citizens	-8.80364
▁insbesondere	-8.80366
▁drei	-8.80415
ia	-8.80607
▁erhalten	-8.80802
O	-8.80829
▁US	-8.80838
▁Parlaments	-8.80977
]]	-8.81048
▁taken	-8.81133
▁Sicherheit	-8.81189
▁position	-8.81513
▁ensure	-8.81522
N	-8.81684
▁tun	-8.82267
▁Fall	-8.82273
▁again	-8.82292
▁St	-8.82621
▁Namen	-8.82636
▁then	-8.82832
4	-8.83113
▁No	-8.83143
▁Unterstützung	-8.83182
▁soll	-8.83355
▁con	-8.83498
▁further	-8.83689
▁Group	-8.8384
▁change	-8.83957
▁wissen	-8.84414
▁waren	-8.84581
▁stay	-8.84614
ern	-8.84654
▁/	-8.84789
▁shall	-8.85314
▁einfach	-8.85441
▁Vorschlag	-8.85445
▁company	-8.8577
ma	-8.85836
▁Zusammenarbeit	-8.85839
▁necessary	-8.85915
▁special	-8.86142
▁Problem	-8.86242
▁lassen	-8.86337
no	-8.86368
▁Kunden	-8.86405
L	-8.86459
co	-8.8665
▁|	-8.86837
▁beim	-8.86946
▁problems	-8.87042
▁security	-8.87053
1	-8.87084
il	-8.8709
me	-8.87202
▁given	-8.87221
▁law	-8.8741
▁geben	-8.87461
▁Dies	-8.8754
man	-8.87639
▁12	-8.87684
ist	-8.88009
▁why	-8.88018
▁however	-8.88029
▁group	-8.88301
▁while	-8.88561
▁System	-8.88569
▁cooperation	-8.88689
▁8	-8.88698
▁life	-8.88712
▁besteht	-8.8904
▁hope	-8.891
▁2009	-8.89253
▁legal	-8.89263
▁stehen	-8.89282
▁sehen	-8.8961
▁form	-8.89614
▁located	-8.89678
▁7	-8.89817
▁Grund	-8.89834
▁vote	-8.89896
▁modern	-8.89916
▁einmal	-8.89946
▁Le	-8.89997
▁di	-8.90152
ische	-8.90163
▁main	-8.90821
▁Regierung	-8.90957
▁House	-8.9096
▁always	-8.91022
▁Ländern	-8.91452
▁steht	-8.91457
▁result	-8.91484
▁With	-8.91541
▁De	-8.91652
se	-8.91725
▁wichtig	-8.91815
▁down	-8.927
▁present	-8.92726
▁Fragen	-8.92731
ig	-8.9278
▁U	-8.93004
▁action	-8.93043
▁wäre	-8.93086
▁protection	-8.93158
land	-8.93268
▁United	-8.93409
▁better	-8.93548
▁They	-8.93639
▁30	-8.93682
▁Da	-8.93686
ment	-8.938
▁hand	-8.9388
▁dabei	-8.93902
▁full	-8.93922
▁power	-8.9423
ur	-8.94278
▁Kollegen	-8.94825
▁seinen	-8.95152
▁letzten	-8.95313
▁worden	-8.96102
▁production	-8.96126
▁Community	-8.96138
as	-8.96214
▁needs	-8.96218
▁große	-8.9623
▁welche	-8.96248
▁did	-8.96293
▁zusammen	-8.96329
▁using	-8.96352
▁muß	-8.96416
ab	-8.96459
▁Kommissar	-8.96459
▁trade	-8.96477
▁open	-8.96664
▁around	-8.97052
I	-8.97085
▁Was	-8.97166
▁current	-8.97344
▁Bedeutung	-8.97358
ra	-8.97365
▁Bar	-8.97377
▁based	-8.97386
▁Verfügung	-8.97693
▁working	-8.97832
▁Ihr	-8.97896
▁centre	-8.97933
▁become	-8.9799
▁local	-8.98368
▁What	-8.98372
▁großen	-8.98384
ive	-8.98614
▁state	-8.98695
▁Mittel	-8.98783
▁USA	-8.98966
▁water	-8.99068
00	-8.99115
▁Seite	-8.99196
▁terms	-8.99304
im	-8.99366
▁aller	-8.99628
_	-8.99722
▁Möglichkeit	-8.99803
▁whether	-8.99941
v	-9.00141
gen	-9.00325
▁particularly	-9.00529
▁These	-9.00577
ste	-9.00644
▁together	-9.00767
▁z	-9.0085
▁role	-9.00884
▁second	-9.01076
▁Thema	-9.01179
▁Man	-9.01233
▁another	-9.01322
ner	-9.01515
▁Ge	-9.0186
▁Aber	-9.02054
▁children	-9.02234
▁Auch	-9.02311
▁Als	-9.02354
▁Am	-9.02475
zu	-9.0254
▁kommen	-9.02682
▁German	-9.03004
▁When	-9.03017
ro	-9.03323
▁km	-9.03502
▁private	-9.0354
os	-9.03721
▁Z	-9.03726
▁Kinder	-9.0386
▁bieten	-9.03879
ungen	-9.03984
▁Service	-9.04072
▁Weise	-9.0426
▁Ende	-9.04335
ce	-9.04424
▁davon	-9.04464
▁stellen	-9.04666
▁conditions	-9.04984
▁darüber	-9.04987
▁Zukunft	-9.05027
▁certain	-9.05085
▁kein	-9.05158
▁entfernt	-9.05435
▁experience	-9.05437
▁weitere	-9.05526
▁respect	-9.05679
▁Zu	-9.05727
▁whole	-9.05793
▁page	-9.05871
▁gegenüber	-9.05901
▁daher	-9.06007
▁issues	-9.06115
▁Markt	-9.06186
▁sector	-9.06294
▁natürlich	-9.06323
▁non	-9.06331
up	-9.06449
▁close	-9.06467
▁control	-9.06523
▁Probleme	-9.06582
▁various	-9.06636
▁b	-9.06672
▁Beispiel	-9.0669
▁Politik	-9.06722
▁Frauen	-9.06799
▁Weg	-9.06886
▁account	-9.06928
ke	-9.07009
lich	-9.07038
▁eigenen	-9.07086
▁women	-9.07155
▁health	-9.07387
▁wirklich	-9.0743
▁project	-9.07447
▁companies	-9.07609
▁sowohl	-9.07713
▁könnte	-9.07786
▁industry	-9.07899
▁Mrs	-9.07906
▁matter	-9.07936
▁basis	-9.07964
▁budget	-9.08048
▁befindet	-9.08059
ka	-9.08111
ve	-9.08207
▁erreichen	-9.08236
▁politischen	-9.08444
▁hatte	-9.08595
▁third	-9.08679
▁unser	-9.09031
▁research	-9.09128
▁unterstützen	-9.0916
▁really	-9.09266
▁Ihrer	-9.09375
▁meiner	-9.09559
▁i	-9.09564
▁Umwelt	-9.09658
▁zurück	-9.09704
bar	-9.09829
▁c	-9.0984
la	-9.09846
▁Schutz	-9.09958
the	-9.10093
▁Un	-9.10193
▁19	-9.10198
▁government	-9.1022
▁besonders	-9.10335
ierung	-9.10348
▁hin	-9.10429
▁Haus	-9.10464
X	-9.1048
▁systems	-9.10481
▁especially	-9.10648
▁staff	-9.10724
▁ja	-9.10761
▁direkt	-9.10874
sch	-9.10878
▁global	-9.11133
▁create	-9.11254
▁Staaten	-9.11262
▁ihnen	-9.11288
▁done	-9.11308
▁look	-9.11471
▁verschiedenen	-9.11488
▁region	-9.11593
▁location	-9.11604
▁site	-9.11672
un	-9.11826
▁Rolle	-9.1196
ca	-9.1197
▁J	-9.1199
▁Seiten	-9.12028
▁short	-9.12383
é	-9.12422
▁programme	-9.12486
▁Hier	-9.12513
▁innerhalb	-9.12582
▁single	-9.12866
ism	-9.12877
da	-9.12903
▁Tag	-9.13197
▁dort	-9.13273
▁million	-9.13332
▁transport	-9.1342
▁New	-9.13451
▁alles	-9.1424
▁less	-9.14319
▁decision	-9.14412
▁zwar	-9.14569
▁9	-9.14623
▁major	-9.14661
▁car	-9.14768
go	-9.14786
▁vielen	-9.14936
▁p	-9.14987
▁Richtlinie	-9.15101
▁specific	-9.15129
▁Gemeinschaft	-9.1515
▁home	-9.15365
▁general	-9.15531
▁personal	-9.15558
▁f	-9.15565
▁environment	-9.15777
▁Meinung	-9.15848
▁50	-9.15926
▁rapporteur	-9.15948
▁Artikel	-9.15961
▁subject	-9.15996
▁start	-9.15996
▁itself	-9.16032
▁continue	-9.1605
▁something	-9.16062
▁Programm	-9.16172
igen	-9.16256
▁several	-9.16264
▁Alle	-9.16459
▁food	-9.16477
▁old	-9.16777
▁Software	-9.16834
▁EUR	-9.16884
▁X	-9.17003
▁resolution	-9.17012
ut	-9.1708
isch	-9.17113
▁16	-9.17207
▁internationalen	-9.17212
▁Germany	-9.17279
ie	-9.17357
▁europäische	-9.17394
ent	-9.17583
▁price	-9.17611
▁Hilfe	-9.177
▁Energie	-9.17741
▁range	-9.1787
▁name	-9.17926
ling	-9.17939
▁Uhr	-9.17979
▁möchten	-9.18085
▁making	-9.18087
▁excellent	-9.18121
▁ask	-9.18326
▁regard	-9.1841
▁17	-9.18419
▁least	-9.1869
ant	-9.18758
▁wish	-9.1879
▁erste	-9.19068
j	-9.19099
(	-9.19221
▁following	-9.19307
▁gentlemen	-9.19368
▁line	-9.19547
▁14	-9.1956
▁2008	-9.19566
▁directive	-9.19569
▁Wirtschaft	-9.19605
▁Ihren	-9.19674
▁individual	-9.19706
ul	-9.19831
und	-9.19926
▁agree	-9.19926
▁führen	-9.19968
▁2010	-9.20028
▁away	-9.20111
▁going	-9.20113
ness	-9.20278
ate	-9.20422
▁management	-9.20629
ad	-9.20681
chen	-9.20703
▁forward	-9.20775
▁positive	-9.2091
▁family	-9.20979
he	-9.21516
▁:	-9.2169
li	-9.21718
▁period	-9.2177
▁Form	-9.21837
▁crisis	-9.21921
▁welcome	-9.22024
▁Wasser	-9.22041
▁Lösung	-9.22075
▁rules	-9.22116
▁Mal	-9.22126
▁found	-9.22134
▁co	-9.22162
▁Leben	-9.22484
▁air	-9.22532
▁product	-9.22723
men	-9.22796
▁money	-9.22811
▁software	-9.22898
▁le	-9.23027
▁etc	-9.23147
▁se	-9.23166
▁towards	-9.23494
▁once	-9.23528
▁World	-9.23609
▁approach	-9.23641
ton	-9.23762
▁Situation	-9.23813
▁pre	-9.24029
▁thank	-9.24067
▁little	-9.24151
▁online	-9.24284
▁list	-9.24329
▁Madam	-9.24376
U	-9.24503
▁Zusammenhang	-9.24639
▁until	-9.24661
lo	-9.24674
▁Region	-9.24858
▁him	-9.24893
▁institutions	-9.25076
▁things	-9.2516
▁stellt	-9.25165
▁design	-9.2518
▁often	-9.25345
▁Co	-9.25501
▁increase	-9.25628
▁11	-9.25761
▁call	-9.2584
▁kommt	-9.25944
▁beiden	-9.2597
▁unserem	-9.25998
▁fast	-9.26163
▁25	-9.26203
do	-9.26329
▁Preis	-9.26556
▁hinaus	-9.26646
▁l	-9.26803
▁Treaty	-9.26924
▁aid	-9.26954
▁Unter	-9.27163
▁100	-9.27326
▁Entschließung	-9.27387
▁play	-9.27432
▁Ort	-9.27573
▁sea	-9.2775
▁customers	-9.27835
▁Personen	-9.27889
di	-9.27896
▁opportunity	-9.27979
▁value	-9.28144
®	-9.2827
▁bitte	-9.28335
▁off	-9.28342
▁rather	-9.28427
ti	-9.2847
▁growth	-9.2865
|	-9.28769
▁activities	-9.28783
▁days	-9.28992
▁Über	-9.29036
ary	-9.291
ry	-9.29142
▁quite	-9.2924
▁sub	-9.29243
am	-9.29333
▁bzw	-9.29782
▁bringen	-9.29923
▁daran	-9.30059
ster	-9.30176
ein	-9.30231
ik	-9.3029
▁unterstützt	-9.30338
▁provided	-9.30454
▁Präsidentin	-9.30593
▁include	-9.3068
▁jeder	-9.30685
▁resources	-9.30822
▁State	-9.30846
ak	-9.31121
▁might	-9.31181
▁weniger	-9.31211
▁Kosten	-9.3131
▁Produkte	-9.31345
▁International	-9.31388
▁interest	-9.31404
▁town	-9.31409
▁behalf	-9.31438
▁gemacht	-9.31459
▁favour	-9.31461
▁gilt	-9.31467
▁progress	-9.31675
▁indem	-9.31697
▁fully	-9.31725
age	-9.31883
▁Deshalb	-9.31889
ier	-9.31996
▁framework	-9.32076
▁Mar	-9.32205
▁Hotels	-9.32234
▁gesagt	-9.32262
▁Fraktion	-9.32398
▁reason	-9.32521
▁ca	-9.32583
▁nämlich	-9.32667
▁field	-9.32669
ci	-9.32793
▁yet	-9.32936
▁she	-9.32956
▁After	-9.33028
▁politische	-9.33066
ir	-9.33074
ler	-9.3315
▁13	-9.3322
▁Park	-9.33278
The	-9.33379
▁having	-9.33427
▁contact	-9.33559
▁September	-9.33656
▁ladies	-9.33754
▁2000	-9.33832
Z	-9.33848
▁Haupt	-9.33878
▁solution	-9.33896
▁sogar	-9.33941
ko	-9.33952
▁technology	-9.34025
▁Rates	-9.34098
8	-9.3414
▁Millionen	-9.34183
▁past	-9.34239
▁Dieses	-9.34278
▁Web	-9.34309
▁Berlin	-9.34339
▁Qualität	-9.34379
▁etwa	-9.34439
▁Du	-9.34586
▁light	-9.34629
id	-9.34651
and	-9.34692
▁nehmen	-9.3509
▁Do	-9.35139
▁left	-9.35192
▁content	-9.35299
▁among	-9.35377
▁ideal	-9.35443
▁2007	-9.35455
▁amendments	-9.35692
▁Bank	-9.35832
▁Unsere	-9.35832
▁allow	-9.35839
▁above	-9.35868
▁safety	-9.35945
▁ihn	-9.35979
▁wirtschaftliche	-9.36003
▁members	-9.36171
▁San	-9.36187
▁heart	-9.36247
▁kind	-9.36347
▁minutes	-9.36376
▁easy	-9.36379
mo	-9.36476
▁enjoy	-9.36522
▁economy	-9.36525
▁Punkt	-9.36643
▁Durch	-9.36857
▁opinion	-9.36981
▁show	-9.37008
▁taking	-9.37127
▁adopted	-9.3718
▁ebenfalls	-9.37376
▁key	-9.37403
▁Al	-9.37495
▁ihm	-9.37581
ber	-9.37663
▁)	-9.37684
▁costs	-9.3769
▁sei	-9.37691
▁proposals	-9.37718
▁meisten	-9.37767
ga	-9.37865
▁deal	-9.37878
▁website	-9.37956
▁land	-9.38054
▁text	-9.38157
▁seinem	-9.38218
▁Deutschland	-9.38257
▁genau	-9.38325
▁gerade	-9.38412
▁application	-9.38499
▁Bezug	-9.38529
▁addition	-9.38652
▁unterschiedlich	-9.38694
▁legislation	-9.38804
▁dessen	-9.38835
▁gehen	-9.3889
so	-9.38982
ä	-9.39137
▁darf	-9.39165
▁called	-9.39194
▁Europas	-9.39333
▁person	-9.39459
7	-9.39494
▁building	-9.39546
▁bar	-9.39594
▁handelt	-9.39614
▁Dieser	-9.39617
▁Entscheidung	-9.39676
▁One	-9.39743
▁dis	-9.39747
▁Gesellschaft	-9.39779
▁Verbraucher	-9.39797
6	-9.3984
ze	-9.39891
▁gute	-9.39986
▁Members	-9.39992
▁sicher	-9.40094
▁difficult	-9.40101
▁weit	-9.40199
▁Wettbewerb	-9.40307
▁Aussprache	-9.4047
▁darin	-9.40548
ian	-9.40604
▁Anwendung	-9.40625
▁0	-9.40632
▁due	-9.40659
▁risk	-9.40766
▁ent	-9.40847
▁Rechte	-9.40905
▁[	-9.40957
▁attention	-9.41014
ated	-9.41221
▁Website	-9.41463
▁policies	-9.41483
▁del	-9.41657
▁beautiful	-9.41753
ni	-9.41762
▁concerned	-9.41786
▁Abstimmung	-9.41792
▁glaube	-9.4187
EN	-9.42001
▁My	-9.42144
".	-9.42185
ting	-9.42246
▁klar	-9.42278
▁responsibility	-9.42313
▁Restaurant	-9.42387
▁simply	-9.42482
]	-9.42534
▁öffentlichen	-9.42641
est	-9.42651
▁macht	-9.42687
▁dürfen	-9.42708
▁24	-9.42779
30	-9.4285
min	-9.43022
▁Bild	-9.43054
▁besten	-9.43087
▁results	-9.43111
sa	-9.43233
▁projects	-9.43324
▁complete	-9.43402
▁schaffen	-9.43412
▁feel	-9.43416
▁deutlich	-9.43551
▁Kultur	-9.43577
▁importance	-9.43591
▁provides	-9.43624
▁besser	-9.43752
▁Pro	-9.43802
▁Geld	-9.43831
▁einigen	-9.44091
▁effective	-9.44159
▁society	-9.44211
ty	-9.44282
con	-9.44408
▁jeden	-9.44462
ft	-9.44534
▁principle	-9.44543
▁Bau	-9.44624
▁version	-9.44722
▁El	-9.44726
▁brauchen	-9.44748
▁total	-9.44792
Berichterstatter	-9.44827
▁ihrem	-9.44972
▁points	-9.45209
▁sollen	-9.45312
▁TV	-9.45359
▁bedeutet	-9.45381
per	-9.45399
▁environmental	-9.45404
▁Industrie	-9.45528
▁makes	-9.45552
▁strategy	-9.45571
▁natural	-9.45659
▁greater	-9.45749
▁known	-9.4593
▁schnell	-9.45943
▁Demokratie	-9.45947
▁Natur	-9.46064
▁groups	-9.46267
▁Spiel	-9.4638
▁fundamental	-9.46467
▁training	-9.4662
▁solche	-9.46709
▁weiterhin	-9.46749
▁central	-9.4677
▁nationalen	-9.46819
▁Richtung	-9.46913
▁questions	-9.46921
▁gehört	-9.46959
▁side	-9.47019
▁step	-9.47024
▁bekannt	-9.47074
▁Ebene	-9.47117
ine	-9.47216
▁internal	-9.47243
▁Projekt	-9.47333
▁betrifft	-9.47455
▁keinen	-9.47578
▁Verantwortung	-9.47579
▁along	-9.47593
▁breakfast	-9.47597
▁bring	-9.47598
▁required	-9.47898
▁Dank	-9.47945
0	-9.48005
▁standards	-9.48031
▁achieve	-9.4808
▁meeting	-9.48157
▁four	-9.48182
▁et	-9.48216
▁pay	-9.48282
▁National	-9.48284
▁words	-9.48289
Y	-9.48372
▁times	-9.48385
au	-9.4844
▁serious	-9.48543
Änderungsanträge	-9.48629
ien	-9.48723
▁Zugang	-9.48781
end	-9.4882
▁visit	-9.48823
▁others	-9.48939
▁network	-9.49076
▁keep	-9.49134
▁Dienstleistung	-9.49218
▁standard	-9.49295
▁authorities	-9.49488
▁clearly	-9.4951
▁deshalb	-9.49559
▁Umsetzung	-9.49596
▁via	-9.49613
▁Neu	-9.49786
▁recent	-9.49859
ri	-9.49892
▁receive	-9.49988
▁Gebiet	-9.49999
▁wichtige	-9.50036
ol	-9.50143
▁live	-9.50181
▁Von	-9.50223
▁user	-9.50415
her	-9.50548
▁competition	-9.5057
▁essential	-9.50607
▁aufgrund	-9.50611
ben	-9.50749
heit	-9.50762
▁erst	-9.50787
▁Nähe	-9.50836
▁let	-9.50849
▁young	-9.50904
▁cost	-9.51076
▁cultural	-9.51183
▁November	-9.51324
▁address	-9.51348
",	-9.51475
▁technical	-9.51496
▁würden	-9.51828
▁Minister	-9.5188
▁verwendet	-9.51971
▁Menschenrechte	-9.52165
▁nature	-9.52178
ance	-9.52197
▁Wirtschafts	-9.52263
▁reform	-9.52406
▁near	-9.52439
▁Wahl	-9.52538
ating	-9.52573
▁peace	-9.52626
▁directly	-9.52707
▁notwendig	-9.5275
▁findet	-9.52829
▁facilities	-9.5288
▁u	-9.52896
▁statt	-9.52909
▁erreicht	-9.52912
▁Windows	-9.5293
▁Text	-9.53047
▁Ansicht	-9.5306
▁enough	-9.53078
▁hard	-9.53108
▁employment	-9.53194
▁nächsten	-9.53239
▁views	-9.53247
▁longer	-9.53262
aus	-9.53275
▁responsible	-9.53279
▁months	-9.53319
▁Bevölkerung	-9.53321
▁proposed	-9.53337
▁Reihe	-9.53373
▁Interesse	-9.53578
▁history	-9.53898
▁Produkt	-9.53967
▁nutzen	-9.54007
▁40	-9.54118
▁2006	-9.54343
tro	-9.54422
▁UN	-9.54609
▁currently	-9.54671
▁April	-9.54675
▁pages	-9.54713
▁Hand	-9.5474
▁dar	-9.5476
▁requirements	-9.54829
▁Erfolg	-9.54846
▁y	-9.54903
▁werde	-9.5501
▁file	-9.55148
▁g	-9.55323
▁solutions	-9.55388
politik	-9.55406
▁allerdings	-9.55512
▁top	-9.55554
▁guests	-9.55577
▁See	-9.55618
▁request	-9.55644
▁event	-9.55674
▁involved	-9.55725
▁themselves	-9.55753
▁implementation	-9.55846
9	-9.55868
▁wide	-9.55928
▁000	-9.55969
▁vier	-9.56008
▁parties	-9.56029
▁accept	-9.56097
▁station	-9.56131
ous	-9.5621
▁freedom	-9.56212
▁force	-9.56229
▁interests	-9.56242
▁Paris	-9.56256
á	-9.56361
ha	-9.56385
▁language	-9.56471
▁art	-9.56496
mal	-9.56627
ige	-9.5664
line	-9.56647
son	-9.56662
▁improve	-9.56666
▁music	-9.5671
▁hoffe	-9.56714
▁sure	-9.56739
▁events	-9.56829
▁Bedingungen	-9.56841
▁house	-9.56897
▁ago	-9.56916
▁never	-9.56951
je	-9.57036
▁extremely	-9.57223
▁From	-9.57256
▁o	-9.57266
▁Please	-9.57353
▁needed	-9.57374
▁please	-9.57481
▁voted	-9.57486
▁Israel	-9.57543
▁Verfahren	-9.57571
▁democracy	-9.57572
▁century	-9.57593
▁beispielsweise	-9.57725
▁regions	-9.57752
pro	-9.57772
▁Vertrag	-9.57872
▁Ziele	-9.57884
▁weiß	-9.57891
mm	-9.57946
▁upon	-9.57959
▁Grundlage	-9.58027
▁Vorschläge	-9.58159
▁gemeinsamen	-9.58224
▁unique	-9.58231
tra	-9.58517
▁team	-9.58531
▁regulation	-9.58689
▁web	-9.58717
▁efforts	-9.58729
zen	-9.58759
▁final	-9.58805
▁vielleicht	-9.58898
▁plan	-9.58983
▁arbeiten	-9.5899
▁lot	-9.59035
▁share	-9.59036
out	-9.59269
▁kleinen	-9.5934
▁inter	-9.59381
▁beach	-9.594
▁night	-9.5945
▁GmbH	-9.59452
art	-9.59511
ö	-9.59522
▁sozialen	-9.59588
nd	-9.59593
▁Herren	-9.59668
▁führt	-9.59712
▁walk	-9.59722
▁sprechen	-9.59761
▁regional	-9.59797
&	-9.59813
▁effect	-9.59817
▁France	-9.59832
▁developed	-9.59842
▁restaurant	-9.59888
▁que	-9.59895
▁neu	-9.59914
▁additional	-9.60075
▁Russia	-9.60076
▁appropriate	-9.60087
▁Geschichte	-9.60103
▁Ihrem	-9.6013
net	-9.60263
▁success	-9.60316
▁ermöglicht	-9.60384
▁Partner	-9.60453
▁mind	-9.6052
▁Nicht	-9.60528
▁understand	-9.60577
▁Einsatz	-9.60656
▁Daher	-9.60725
▁comfortable	-9.60729
▁Con	-9.60729
▁soon	-9.609
rs	-9.6092
▁run	-9.60978
▁Forschung	-9.60997
▁fest	-9.6104
spolitik	-9.6106
▁Ja	-9.61162
▁capital	-9.6117
▁Jahres	-9.61173
▁strong	-9.6127
▁Pi	-9.61438
▁bereit	-9.6146
▁negotiations	-9.61558
▁situated	-9.61646
In	-9.61656
auf	-9.61699
▁hoch	-9.61733
▁consider	-9.61771
▁either	-9.61794
▁halten	-9.61806
▁post	-9.61996
▁direct	-9.62128
▁Arbeits	-9.62138
▁bleiben	-9.6215
▁changes	-9.62182
▁verfügt	-9.62434
▁Debatte	-9.62487
▁By	-9.62549
▁though	-9.6264
▁AG	-9.62675
▁foreign	-9.62694
▁gemeinsame	-9.62718
▁everything	-9.62732
▁zeigt	-9.62796
▁developing	-9.62899
▁Möglichkeiten	-9.62992
liche	-9.6301
▁meet	-9.63031
▁Damen	-9.63049
▁verschiedene	-9.63228
ja	-9.63265
▁May	-9.63265
▁Sa	-9.6335
▁add	-9.63402
▁created	-9.63482
▁program	-9.63579
▁weltweit	-9.63607
ies	-9.63619
▁check	-9.63734
▁Dr	-9.63738
▁je	-9.63828
▁rate	-9.63834
▁Schritt	-9.63888
▁turn	-9.63966
▁internationale	-9.63973
▁Ar	-9.64145
▁true	-9.64254
▁Hinblick	-9.64336
▁Presidency	-9.64359
ach	-9.64436
▁idea	-9.6447
▁according	-9.64507
▁lange	-9.64567
▁road	-9.64586
▁education	-9.64618
▁care	-9.64621
om	-9.64744
tic	-9.64818
▁Finanz	-9.6482
▁€	-9.64846
▁type	-9.64879
▁k	-9.64898
▁könnten	-9.6496
▁French	-9.65036
ise	-9.65037
DE	-9.65068
▁Design	-9.65102
▁Sch	-9.65179
ren	-9.65188
▁comes	-9.65216
▁almost	-9.65357
▁climate	-9.65383
sh	-9.65389
▁wenig	-9.65406
ck	-9.65409
▁later	-9.65485
▁‘	-9.65505
▁cases	-9.65525
▁gleichzeitig	-9.65583
▁Strategie	-9.65606
▁Information	-9.6569
▁Erweiterung	-9.65709
▁living	-9.65795
▁Nutzung	-9.65798
▁thus	-9.65833
▁fair	-9.65838
▁Platz	-9.65951
▁democratic	-9.65956
▁included	-9.66021
▁actually	-9.66148
▁Minuten	-9.66175
▁original	-9.66341
▁date	-9.66371
▁erforderlich	-9.66412
▁Ro	-9.66426
▁stand	-9.66454
zeit	-9.66535
▁Car	-9.66567
▁Auswirkungen	-9.66579
▁Institutionen	-9.66659
▁Änderungsantrag	-9.66747
▁el	-9.66785
▁War	-9.66835
▁Zentrum	-9.66847
▁read	-9.66886
▁Doch	-9.66918
▁Sport	-9.66952
▁Druck	-9.66963
▁lead	-9.66971
▁reach	-9.6699
▁Musik	-9.67006
▁outside	-9.67076
▁prices	-9.67138
▁procedure	-9.67144
form	-9.6715
▁develop	-9.67222
▁knowledge	-9.67252
▁states	-9.6729
▁held	-9.67517
▁Tatsache	-9.67545
▁2005	-9.67667
▁send	-9.67672
▁gleich	-9.67804
▁Version	-9.67898
▁thing	-9.67916
▁Blick	-9.68079
pa	-9.68082
▁context	-9.68244
▁markets	-9.68302
▁21	-9.68385
▁ebenso	-9.68386
▁Landes	-9.68397
pe	-9.68517
▁Ergebnis	-9.6852
▁t	-9.68544
▁Ausdruck	-9.68575
▁hatten	-9.68666
▁Auto	-9.68718
ho	-9.68731
▁space	-9.68882
▁wohl	-9.68892
hi	-9.68907
io	-9.68938
ger	-9.68941
mann	-9.68964
▁funds	-9.68976
▁week	-9.68993
Mail	-9.69044
ex	-9.69061
▁seen	-9.69159
▁verbunden	-9.69218
▁clean	-9.69255
▁perfect	-9.69343
▁Abgeordneten	-9.69356
▁media	-9.69434
▁gesamten	-9.69481
▁entwickelt	-9.69541
▁Verbindung	-9.69669
▁simple	-9.69671
▁Ent	-9.69676
▁American	-9.697
stand	-9.69743
▁communication	-9.69791
10	-9.698
lichen	-9.69856
▁danken	-9.69907
▁workers	-9.69957
▁designed	-9.70031
J	-9.70073
▁darum	-9.70113
▁einzelnen	-9.70124
▁guarantee	-9.7018
▁Regionen	-9.7022
▁customer	-9.70264
▁amount	-9.70268
▁Mai	-9.70351
▁professional	-9.70368
▁majority	-9.7038
▁Let	-9.70382
nt	-9.70404
▁Rechts	-9.70453
bereich	-9.70493
▁Kolleginnen	-9.70522
▁voll	-9.70545
▁famous	-9.70572
ts	-9.70586
raum	-9.70699
är	-9.7078
▁moment	-9.70966
system	-9.7103
▁impact	-9.71035
tal	-9.71059
▁Mitglieder	-9.7107
▁Selbst	-9.7114
▁How	-9.71176
▁model	-9.71206
▁low	-9.7126
▁five	-9.71307
▁early	-9.71314
▁tax	-9.71355
▁features	-9.71391
▁throughout	-9.71457
▁rund	-9.71504
▁2003	-9.71568
▁Antwort	-9.71624
▁Japan	-9.71629
▁Ru	-9.71719
ende	-9.71751
▁gegeben	-9.71772
▁London	-9.71835
▁denke	-9.71869
▁looking	-9.71876
▁Government	-9.72047
▁Außerdem	-9.72151
▁2004	-9.72152
▁gestellt	-9.72181
▁Court	-9.72201
▁America	-9.72321
ap	-9.72382
▁hätte	-9.72436
▁August	-9.72456
▁Wert	-9.72476
ure	-9.72655
▁fünf	-9.72688
ungs	-9.72715
▁across	-9.72734
▁Online	-9.72753
▁big	-9.728
▁konnte	-9.72837
▁investment	-9.72876
Re	-9.72899
▁1.	-9.72937
▁Verhandlungen	-9.72964
▁hours	-9.73008
▁benefit	-9.73088
▁jedem	-9.73127
▁ever	-9.73194
▁certainly	-9.73263
▁Personal	-9.73358
▁gab	-9.7348
▁South	-9.73488
▁front	-9.73699
▁gemeinsam	-9.73729
▁befinden	-9.73731
▁term	-9.73791
▁remain	-9.73857
▁doing	-9.73906
▁Vereinigten	-9.73939
▁writing	-9.73971
▁links	-9.73994
▁Herausforderung	-9.73997
▁kleine	-9.74022
▁traditional	-9.74024
▁Mo	-9.74052
▁setzen	-9.741
▁connection	-9.74199
▁2002	-9.74235
▁pool	-9.74238
▁prevent	-9.7428
IT	-9.74294
▁Programme	-9.74426
▁game	-9.74436
▁travel	-9.74494
▁euro	-9.74542
▁Angebot	-9.74718
ana	-9.74732
▁book	-9.74732
▁anti	-9.74828
▁jede	-9.74872
▁Na	-9.74894
vor	-9.74994
▁Beziehungen	-9.74998
▁Förderung	-9.74998
▁Abkommen	-9.75013
▁Wort	-9.75109
▁practice	-9.75135
ismus	-9.75137
▁Seit	-9.75205
▁took	-9.75246
▁Bereichen	-9.75275
▁existing	-9.75277
▁neben	-9.75318
▁Interessen	-9.75431
▁basic	-9.75473
▁60	-9.75477
▁deren	-9.75478
▁heißt	-9.75518
▁relations	-9.7552
che	-9.75571
▁Turkey	-9.75678
▁exchange	-9.75788
▁fight	-9.7579
less	-9.75948
▁Raum	-9.76062
ial	-9.76186
▁material	-9.7619
▁Verordnung	-9.7625
▁Liste	-9.76255
ität	-9.76322
berg	-9.76349
vi	-9.76406
lu	-9.76439
▁Aufgabe	-9.76444
vo	-9.76463
ful	-9.76529
▁rest	-9.76553
▁23	-9.76568
bau	-9.76601
▁try	-9.76639
▁mentioned	-9.76641
▁Reform	-9.76652
▁concerns	-9.76683
▁users	-9.76694
▁significant	-9.76701
▁Beitrag	-9.76743
ence	-9.76774
▁although	-9.76835
▁2001	-9.76848
▁concerning	-9.7686
▁h	-9.76987
▁helfen	-9.76991
ally	-9.7702
▁half	-9.77037
▁apply	-9.77084
▁face	-9.77086
▁Not	-9.77107
▁culture	-9.77114
í	-9.77137
▁member	-9.77152
▁Li	-9.77179
▁Me	-9.77273
▁weiteren	-9.77315
▁Or	-9.77473
▁West	-9.77487
▁Kampf	-9.77555
▁Unser	-9.77561
▁geführt	-9.77584
▁committee	-9.77619
▁völlig	-9.77623
mp	-9.77727
▁Kunst	-9.77756
▁Geschäfts	-9.77797
▁Türkei	-9.778
▁Zum	-9.7792
▁completely	-9.77923
▁population	-9.77944
▁nothing	-9.77967
▁holiday	-9.77992
▁leading	-9.78002
▁built	-9.7801
▁Themen	-9.78082
▁Kontrolle	-9.78234
▁English	-9.78292
▁aware	-9.78309
▁enthalten	-9.78328
▁richtig	-9.78347
▁guest	-9.78376
▁related	-9.78414
▁Sicherheits	-9.78496
▁community	-9.78527
que	-9.78535
▁sense	-9.78549
▁ganze	-9.78566
▁friendly	-9.7873
▁lack	-9.78732
▁programmes	-9.78733
▁package	-9.78774
▁promote	-9.788
▁nice	-9.78939
▁Ausschuss	-9.78959
▁liegen	-9.79295
ard	-9.79385
▁objective	-9.79406
▁n	-9.79411
▁internet	-9.79428
▁card	-9.79475
ek	-9.79481
mail	-9.79586
▁choice	-9.79618
▁military	-9.79632
▁double	-9.79718
iz	-9.79741
▁reasons	-9.79822
▁Bo	-9.79841
▁frei	-9.79907
term	-9.79946
▁image	-9.79987
▁computer	-9.8003
▁Gesundheit	-9.80095
ted	-9.80175
haus	-9.80295
les	-9.803
va	-9.80345
▁Meer	-9.80393
▁move	-9.80443
▁Haushalts	-9.80497
▁East	-9.80514
▁gestimmt	-9.8054
qui	-9.8056
▁II	-9.80567
ino	-9.80567
▁don	-9.80622
ina	-9.80638
▁equipment	-9.80706
▁meinen	-9.80715
tel	-9.80791
schutz	-9.80835
▁decisions	-9.80868
▁Since	-9.80894
▁body	-9.80909
▁wichtigen	-9.80949
ü	-9.81061
▁bleibt	-9.81136
▁Ausschusses	-9.81262
▁al	-9.81274
▁1999	-9.81385
▁soziale	-9.8145
▁Verbesserung	-9.81541
▁parts	-9.81588
▁bekommen	-9.81679
isierung	-9.81787
bo	-9.81808
▁performance	-9.81842
▁received	-9.81849
fe	-9.81868
▁Fa	-9.81903
▁concern	-9.81939
▁demand	-9.81955
▁center	-9.82086
▁Strand	-9.821
▁wegen	-9.82113
ot	-9.82132
▁200	-9.82154
▁Standard	-9.8216
▁takes	-9.82296
▁innovative	-9.82304
los	-9.8233
▁Ho	-9.82336
▁stop	-9.82376
▁Bitte	-9.82381
▁includes	-9.82421
▁focus	-9.82462
tre	-9.82571
▁established	-9.82619
▁jedes	-9.82652
platz	-9.82694
▁Transport	-9.82861
▁objectives	-9.82887
▁allows	-9.82932
▁schriftlich	-9.82995
▁Lisbon	-9.83046
tin	-9.83204
▁jobs	-9.83246
▁entire	-9.83249
▁aim	-9.83345
▁Behörden	-9.83373
val	-9.83387
▁Produktion	-9.83409
▁answer	-9.83428
▁men	-9.83448
▁act	-9.83452
stein	-9.83473
bi	-9.83489
▁Ka	-9.83503
50	-9.83536
▁Iran	-9.83615
▁regarding	-9.83623
▁v	-9.83656
▁return	-9.83713
▁test	-9.83729
▁Here	-9.83782
ierte	-9.83849
▁style	-9.83875
▁partners	-9.83952
▁Prozess	-9.84009
▁Familien	-9.84025
▁speak	-9.84033
▁function	-9.8405
▁Handels	-9.84079
▁head	-9.84087
▁Damit	-9.84097
▁works	-9.84156
▁reduce	-9.84156
▁gerne	-9.8418
▁agricultural	-9.84214
▁mehrere	-9.84239
ken	-9.84244
▁später	-9.84269
▁wichtigsten	-9.84274
▁agreements	-9.84338
▁ten	-9.84386
▁Barcelona	-9.84418
▁Ri	-9.84434
ization	-9.84439
verständlich	-9.84446
▁na	-9.84473
▁Krise	-9.84587
▁Post	-9.84606
▁follow	-9.84607
▁response	-9.84642
▁values	-9.84655
▁quickly	-9.84684
▁bus	-9.84803
▁Central	-9.84825
▁credit	-9.84875
▁Macht	-9.84908
▁hinsichtlich	-9.85001
▁Lissabon	-9.85015
▁Film	-9.85016
▁self	-9.85112
▁Mitarbeiter	-9.85126
see	-9.85128
▁Management	-9.85229
▁keyword	-9.85242
▁Frankreich	-9.85287
▁below	-9.85337
▁sound	-9.85351
▁party	-9.85398
▁treatment	-9.85408
▁beginning	-9.85535
▁Beschäftigung	-9.85548
▁Affairs	-9.85609
▁Kon	-9.85619
▁einzige	-9.85619
▁Di	-9.85623
▁Gruppe	-9.85677
▁Gewalt	-9.85726
po	-9.85821
▁dialogue	-9.85865
▁initiative	-9.85902
▁wobei	-9.85965
▁stage	-9.86123
▁General	-9.86129
▁potential	-9.86247
▁mean	-9.86317
▁applications	-9.86347
▁Article	-9.86349
▁protect	-9.86388
▁angenommen	-9.86428
▁enthält	-9.86459
▁ermöglichen	-9.86471
▁extra	-9.8648
▁huge	-9.865
▁accommodation	-9.8665
▁Verwendung	-9.86656
▁Go	-9.86707
▁Insel	-9.86785
▁job	-9.86812
▁Erfahrung	-9.86862
▁Gäste	-9.86908
▁Organisation	-9.86969
▁gar	-9.87011
▁Integration	-9.87117
▁Computer	-9.87121
▁Ergebnisse	-9.87132
Be	-9.87151
▁achieved	-9.87156
ert	-9.87178
▁Ma	-9.87317
▁leben	-9.87413
▁Auswahl	-9.87424
▁Video	-9.87556
▁Person	-9.87575
▁indeed	-9.87602
▁zeigen	-9.87659
▁Some	-9.87668
▁Gelegenheit	-9.87673
▁Dialog	-9.87677
▁contains	-9.87746
ac	-9.87787
▁complex	-9.87846
▁Anfang	-9.87903
▁Of	-9.8791
▁behind	-9.87912
▁recently	-9.87917
▁spielen	-9.87959
▁Notwendigkeit	-9.87963
▁choose	-9.87999
▁floor	-9.88038
▁Schaffung	-9.8805
▁Fehler	-9.88074
▁22	-9.88131
▁gehören	-9.88131
▁seems	-9.88133
▁search	-9.88192
ized	-9.88275
zi	-9.8847
star	-9.88509
▁Lo	-9.88529
▁pressure	-9.88576
ium	-9.88638
▁oil	-9.88638
▁industrial	-9.88722
▁Ex	-9.88756
▁PC	-9.88762
▁sch	-9.88803
des	-9.88811
▁leicht	-9.88812
▁Handel	-9.88833
tes	-9.8893
▁ganzen	-9.89022
del	-9.89145
▁Funktion	-9.89173
▁Finally	-9.89189
▁Informations	-9.892
recht	-9.89338
▁Tage	-9.89408
ß	-9.89417
▁Po	-9.89504
▁successful	-9.89535
▁June	-9.89547
▁highly	-9.89626
▁unseres	-9.89636
▁integration	-9.89671
▁derzeit	-9.89738
▁series	-9.89747
▁everyone	-9.89819
keit	-9.8984
ize	-9.89938
▁Darüber	-9.89989
▁active	-9.8999
▁files	-9.90018
▁eigene	-9.90064
▁presented	-9.90119
▁ausgestattet	-9.90166
▁equipped	-9.902
▁stark	-9.90353
▁verbessern	-9.90418
▁office	-9.90436
▁City	-9.90447
▁came	-9.90459
▁Steuer	-9.90473
▁Umgebung	-9.90545
▁expect	-9.90617
▁hinter	-9.90646
▁relevant	-9.90646
kt	-9.90652
▁Amsterdam	-9.90687
▁lässt	-9.90825
isation	-9.90878
▁nor	-9.90903
▁Zeitpunkt	-9.90969
▁increased	-9.9106
▁carried	-9.91068
▁joint	-9.91089
▁code	-9.91094
▁amendment	-9.91165
▁direction	-9.91188
led	-9.91245
▁Benutzer	-9.91311
▁York	-9.91346
▁Russland	-9.91413
▁whose	-9.91427
▁Juni	-9.91476
▁Woche	-9.91494
▁Herzen	-9.91544
ba	-9.91599
▁commitment	-9.91754
we	-9.91807
▁mal	-9.91822
▁Team	-9.91829
▁Lebens	-9.91872
▁base	-9.91927
▁Jahrhundert	-9.9194
▁verwenden	-9.91944
industrie	-9.91951
▁Landwirtschaft	-9.91956
20	-9.9202
▁verfügen	-9.92034
▁zweite	-9.92207
▁creation	-9.92221
▁agreed	-9.92319
▁video	-9.92359
▁Can	-9.92368
▁Verfassung	-9.92424
▁äußerst	-9.92446
kommen	-9.92455
▁Sommer	-9.92586
▁bestimmte	-9.92613
ised	-9.92619
▁tatsächlich	-9.92634
▁billion	-9.9277
▁geschlossen	-9.92785
▁mobile	-9.92789
▁Finanzierung	-9.92797
org	-9.92803
▁Now	-9.92866
▁cross	-9.92885
▁asked	-9.92907
▁großer	-9.92979
▁consumers	-9.93047
▁rule	-9.93053
▁gebracht	-9.9307
▁board	-9.93087
▁higher	-9.93093
▁supply	-9.93103
▁commercial	-9.93108
▁Berg	-9.93125
du	-9.93203
▁similar	-9.93233
▁Villa	-9.9324
ring	-9.93304
▁press	-9.93368
of	-9.93444
▁fördern	-9.93517
▁Familie	-9.93601
▁civil	-9.9369
▁gesamte	-9.93723
▁meinem	-9.93727
▁perhaps	-9.93786
▁governments	-9.93807
▁compromise	-9.93809
▁table	-9.93821
▁80	-9.93844
▁Mehrheit	-9.9386
▁enable	-9.93925
▁Einführung	-9.93955
▁zunächst	-9.93956
▁27	-9.94012
ning	-9.94016
▁Ko	-9.9404
▁Therefore	-9.94079
one	-9.94111
▁reviews	-9.94118
▁download	-9.94127
▁size	-9.94155
▁external	-9.94195
▁Se	-9.94206
▁goods	-9.9431
▁Je	-9.94381
▁principles	-9.9443
▁Reise	-9.94431
▁added	-9.9446
▁Position	-9.9455
▁Initiative	-9.9455
for	-9.94771
▁nuclear	-9.94776
ür	-9.94783
▁Änderungen	-9.9495
▁guten	-9.94957
mi	-9.94972
▁Debian	-9.95014
▁shown	-9.9514
▁Bad	-9.95141
▁considered	-9.95169
▁Lösungen	-9.95176
▁balance	-9.95215
iv	-9.95239
▁bed	-9.95241
lin	-9.95248
▁aspects	-9.95251
gt	-9.95263
ich	-9.95322
▁r	-9.95363
▁First	-9.95372
▁levels	-9.95375
ite	-9.95385
▁sorgen	-9.95385
▁speed	-9.95415
red	-9.95421
schaft	-9.95492
▁setting	-9.95534
ang	-9.95632
▁*	-9.95677
▁age	-9.95691
▁Küche	-9.95697
▁Convention	-9.9574
▁Jo	-9.95765
▁Server	-9.95773
mit	-9.95794
▁latest	-9.95797
▁gleichen	-9.95804
▁summer	-9.95828
▁possibility	-9.95832
mar	-9.95838
▁bestehen	-9.95847
enden	-9.95882
▁opportunities	-9.95941
▁nie	-9.95956
▁Pa	-9.95992
▁CD	-9.95994
ven	-9.9604
▁Während	-9.96075
▁alternative	-9.96113
time	-9.96116
▁atmosphere	-9.96146
führung	-9.96254
▁legislative	-9.96315
▁mein	-9.96345
▁Ba	-9.96483
▁rates	-9.96486
▁popular	-9.9658
▁Flughafen	-9.96581
▁previous	-9.96616
▁shows	-9.9667
by	-9.96802
▁entwickeln	-9.96826
ish	-9.9687
▁Ra	-9.96965
▁Den	-9.97034
▁Per	-9.97049
▁500	-9.97099
▁multi	-9.971
▁providing	-9.9716
▁neuer	-9.97213
▁Republic	-9.97274
▁reached	-9.97274
▁Dabei	-9.97277
▁Mitglied	-9.97341
▁High	-9.97348
▁easily	-9.97431
▁nichts	-9.97484
ó	-9.97538
▁verstehen	-9.97568
ale	-9.97602
▁Buch	-9.97701
▁Fischerei	-9.97717
▁prepared	-9.97897
▁Spain	-9.97952
▁Regierungen	-9.98007
▁effects	-9.98023
12	-9.98046
▁North	-9.98089
▁matters	-9.98151
▁Preise	-9.98177
ities	-9.98228
▁su	-9.98251
▁En	-9.98257
▁thanks	-9.98265
▁enlargement	-9.98274
▁express	-9.98276
▁bisher	-9.98324
▁charge	-9.9833
▁Test	-9.98348
▁March	-9.98395
za	-9.98404
▁Party	-9.98404
gel	-9.98439
▁somit	-9.98452
▁reports	-9.98452
▁Zahl	-9.98475
▁Änderung	-9.98543
▁sustainable	-9.98582
▁w	-9.9859
▁lediglich	-9.98628
▁gewährleisten	-9.98668
cht	-9.98695
▁decided	-9.98727
▁leave	-9.98732
die	-9.98754
▁Italy	-9.98832
tu	-9.98935
▁materials	-9.98952
port	-9.98966
▁cause	-9.99019
▁construction	-9.99023
▁hohen	-9.99045
▁eingesetzt	-9.99046
▁Wein	-9.99169
▁à	-9.99194
▁capacity	-9.99198
▁Staats	-9.9924
▁Gesamt	-9.99293
▁Kraft	-9.99301
▁Rück	-9.9935
▁Anzahl	-9.99391
▁link	-9.9941
fi	-9.99427
▁IT	-9.99464
▁coming	-9.99467
▁Fortschritte	-9.9947
tor	-9.9952
▁tragen	-9.99548
▁erneut	-9.99578
▁com	-9.99588
▁Kontakt	-9.99626
▁kurz	-9.99672
▁Behandlung	-9.99689
▁Dur	-9.99737
▁submitted	-9.99738
▁Standpunkt	-9.99746
▁Business	-9.99784
sektor	-9.99832
innen	-9.9989
▁increasing	-9.99893
programm	-9.99916
▁rich	-9.99919
if	-9.99926
▁late	-9.99935
▁tool	-9.99939
▁Ukraine	-9.99945
▁train	-10.0002
▁Site	-10.0005
▁Präsidentschaft	-10.0007
▁Wachstum	-10.0009
▁heraus	-10.0016
▁Her	-10.0022
▁draw	-10.0023
▁distance	-10.0037
▁Neben	-10.0038
▁document	-10.0044
▁Sprache	-10.0046
▁property	-10.0046
▁Diskussion	-10.0049
▁Kosovo	-10.0052
▁Frühstück	-10.0055
000	-10.0061
▁six	-10.007
▁consumer	-10.0077
▁Dinge	-10.0078
▁anderer	-10.0078
▁partner	-10.0082
▁Bekämpfung	-10.0087
▁Africa	-10.009
▁movement	-10.0101
▁British	-10.0102
▁Italian	-10.0107
▁digital	-10.0112
▁priority	-10.0114
▁details	-10.0119
▁December	-10.0124
▁island	-10.0125
▁Freiheit	-10.0126
▁Medien	-10.0127
▁zahlreiche	-10.0127
▁Kommissarin	-10.0134
▁closed	-10.0135
▁Erachtens	-10.0135
▁www	-10.0142
▁Booking	-10.0142
▁Folgen	-10.0151
▁Museum	-10.0171
sfähigkeit	-10.0175
▁Such	-10.0179
▁Star	-10.0186
▁Konferenz	-10.02
▁Also	-10.0204
▁ground	-10.0212
▁sagte	-10.0214
▁obwohl	-10.0221
▁Gruppen	-10.0221
ical	-10.0222
▁funding	-10.0227
▁WTO	-10.0227
▁poor	-10.0229
ator	-10.0234
▁oft	-10.0237
▁quiet	-10.0239
▁limited	-10.024
▁assistance	-10.0251
An	-10.0254
▁remains	-10.0256
02	-10.0259
▁Italien	-10.0263
TM	-10.0272
▁bestimmten	-10.0276
▁purpose	-10.0285
weg	-10.0287
▁Urlaub	-10.0297
▁nahe	-10.0299
▁Bildung	-10.0303
▁safe	-10.0308
▁Aktivitäten	-10.0319
fall	-10.0328
▁hohe	-10.0328
▁Inhalt	-10.0329
ere	-10.033
ative	-10.0333
ierten	-10.0344
▁scheint	-10.0344
▁Basis	-10.0347
▁Lu	-10.0348
▁brought	-10.0371
▁independent	-10.0377
▁versucht	-10.0385
▁Juli	-10.0392
▁CO	-10.0399
fa	-10.0402
▁außerdem	-10.0403
▁former	-10.0403
▁Dezember	-10.0409
▁Western	-10.0411
▁apartment	-10.0412
▁versuchen	-10.0418
▁discussion	-10.0418
▁Free	-10.0419
▁Ne	-10.0421
▁Nur	-10.0423
▁Tri	-10.0424
▁airport	-10.0426
lichkeit	-10.0427
▁film	-10.0429
▁zweiten	-10.0435
Fraktion	-10.0436
▁historical	-10.0438
▁message	-10.0445
▁sites	-10.0451
sicherheit	-10.0455
▁supported	-10.0455
▁actions	-10.0457
▁She	-10.0465
▁Stelle	-10.0466
▁Spa	-10.0466
über	-10.0474
▁erster	-10.0476
▁creating	-10.0481
▁Punkte	-10.0487
▁bevor	-10.049
igkeit	-10.0492
▁Tat	-10.0497
▁dadurch	-10.0498
▁Bestimmungen	-10.0499
▁Ca	-10.0502
''	-10.052
▁gas	-10.0526
▁Aufenthalt	-10.053
▁pleased	-10.053
▁Erklärung	-10.0531
▁300	-10.0533
▁variety	-10.0536
▁Club	-10.0542
▁Stunden	-10.0543
ES	-10.0543
▁gemäß	-10.0546
▁durchgeführt	-10.0546
▁Gefahr	-10.0548
▁gives	-10.0552
▁Plan	-10.0553
▁solchen	-10.0567
▁+	-10.0574
▁!	-10.058
▁school	-10.0581
▁1998	-10.0583
▁January	-10.0584
▁conference	-10.0587
▁Hu	-10.059
▁insgesamt	-10.0605
▁Projekte	-10.0607
▁became	-10.0607
▁relation	-10.0608
▁erfolgreich	-10.0618
▁Pe	-10.0624
▁Fi	-10.0625
▁effort	-10.0625
▁ski	-10.0631
▁Auffassung	-10.0637
▁instead	-10.064
▁wirtschaftlich	-10.0642
▁largest	-10.0653
▁reduction	-10.0655
▁source	-10.0656
▁aufgenommen	-10.0658
▁Gu	-10.0659
▁Portugal	-10.066
▁tell	-10.0665
▁produced	-10.0665
▁Zur	-10.0668
lage	-10.0669
▁regulations	-10.0669
▁avoid	-10.0672
▁Bi	-10.0674
▁produce	-10.0679
▁concept	-10.0683
▁Open	-10.0685
▁Aufmerksamkeit	-10.0687
▁vergangenen	-10.07
▁task	-10.07
▁Fund	-10.0706
▁wine	-10.0711
▁October	-10.0712
▁mention	-10.0715
FR	-10.0715
▁study	-10.0721
op	-10.0722
▁schließlich	-10.0724
rat	-10.0736
▁item	-10.0739
▁Vi	-10.0745
▁enter	-10.0753
▁stability	-10.0754
▁village	-10.0755
geben	-10.0758
bel	-10.0762
▁draft	-10.077
▁build	-10.0774
▁meines	-10.0781
▁Ski	-10.0782
▁restaurants	-10.0782
▁review	-10.0785
▁alten	-10.0789
▁interesting	-10.0795
▁Ad	-10.0796
▁operation	-10.0797
mon	-10.08
gang	-10.0802
▁Haushalt	-10.0809
▁hotels	-10.081
▁illegal	-10.0813
▁März	-10.0815
▁einschließlich	-10.0821
11	-10.0825
▁ma	-10.0832
▁round	-10.0833
ell	-10.0836
fer	-10.0836
▁forms	-10.0837
▁contribution	-10.0837
▁folgt	-10.084
▁ändern	-10.084
▁damage	-10.0841
ug	-10.0842
▁word	-10.0846
tag	-10.0847
▁activity	-10.0852
▁Pre	-10.0854
▁genießen	-10.0855
▁started	-10.0855
▁fishing	-10.0864
▁allowed	-10.0864
▁Luft	-10.0876
▁öffentliche	-10.0882
last	-10.0885
hr	-10.0891
▁Entscheidungen	-10.0892
▁vertreten	-10.0894
▁park	-10.0896
▁medium	-10.0901
ku	-10.0904
▁morgen	-10.0913
▁Oktober	-10.0914
▁status	-10.0915
+	-10.0917
▁Rights	-10.0931
▁places	-10.0933
elle	-10.0941
▁Today	-10.0941
▁Gebäude	-10.0941
▁Anforderungen	-10.0951
▁Arbeitnehmer	-10.0955
▁click	-10.0955
▁eigentlich	-10.0956
▁Nord	-10.0958
▁distribution	-10.0961
▁van	-10.0965
▁erfahren	-10.0968
▁bit	-10.097
ors	-10.0973
▁ha	-10.0977
▁pass	-10.0978
▁Öffentlichkeit	-10.099
mer	-10.0991
▁Folge	-10.0999
▁Development	-10.0999
▁statement	-10.1008
ip	-10.1009
▁option	-10.101
▁Vorschriften	-10.101
stellen	-10.1014
▁Beginn	-10.1019
EL	-10.1021
▁plant	-10.1022
▁labour	-10.1023
kon	-10.1028
▁warm	-10.1031
▁Vertrags	-10.1035
ual	-10.1039
▁helpful	-10.1039
▁mountain	-10.104
▁chance	-10.1043
Gästebewertungen	-10.1045
▁para	-10.105
▁Tagesordnung	-10.1055
▁Start	-10.1057
▁größten	-10.1067
▁Sinne	-10.1073
nen	-10.1077
▁learn	-10.1077
▁written	-10.1077
▁conflict	-10.108
ging	-10.1081
▁Y	-10.1082
▁Golf	-10.1084
▁Transparenz	-10.1084
▁reading	-10.1087
▁equal	-10.1091
▁offering	-10.1094
▁Republik	-10.1095
▁leisten	-10.1106
▁procedures	-10.1106
▁Spanish	-10.1107
▁steps	-10.111
▁comfort	-10.1113
ud	-10.1113
▁dringend	-10.1119
▁erwarten	-10.112
▁Anfrage	-10.112
▁provisions	-10.112
▁Höhe	-10.1121
▁Grenzen	-10.1126
▁Sicht	-10.1127
▁treffen	-10.1134
▁giving	-10.1134
▁structure	-10.1136
ok	-10.1137
▁leider	-10.1138
▁Bereiche	-10.1146
▁Bilder	-10.1152
▁criteria	-10.1155
bit	-10.1157
▁ourselves	-10.1162
▁wichtiger	-10.1165
▁konnten	-10.1171
▁besondere	-10.1175
▁regards	-10.1177
▁transfer	-10.1178
▁require	-10.1181
▁Meine	-10.1186
▁contract	-10.1192
▁los	-10.1192
..."	-10.1192
▁agenda	-10.1198
▁method	-10.1204
▁behandelt	-10.1206
▁recht	-10.121
▁Ansatz	-10.1212
▁Krieg	-10.1213
si	-10.1214
▁Inter	-10.1214
▁Wochen	-10.1232
gi	-10.1233
▁instruments	-10.1239
▁geworden	-10.1241
▁allein	-10.1246
way	-10.1249
▁halte	-10.1252
▁maintain	-10.1255
▁separate	-10.1256
▁wenige	-10.1258
▁violence	-10.1259
▁Nationen	-10.1262
▁Centre	-10.1266
▁genommen	-10.1266
▁sechs	-10.127
ible	-10.1283
▁erfolgt	-10.1291
▁Unternehmens	-10.1295
▁finally	-10.1299
▁useful	-10.1301
▁drive	-10.1317
▁Lebensmittel	-10.132
▁section	-10.1333
▁got	-10.1334
▁Investitionen	-10.1335
▁Binnenmarkt	-10.1336
▁Linux	-10.1337
▁class	-10.1341
mb	-10.1345
US	-10.1347
▁efficient	-10.1352
▁verantwortlich	-10.1353
▁Bus	-10.1354
▁$	-10.1357
Office	-10.1362
▁Januar	-10.1364
▁July	-10.1367
▁Services	-10.1373
▁benötigen	-10.1375
▁End	-10.1383
▁begin	-10.1391
▁Firma	-10.1396
▁lower	-10.1401
▁Verkehrs	-10.141
▁documents	-10.1411
▁immediately	-10.1412
ker	-10.1426
ischer	-10.1436
use	-10.1438
▁pe	-10.1441
▁Many	-10.1443
▁Sache	-10.1445
▁''	-10.1449
▁highest	-10.1452
unternehmen	-10.1453
▁Gründen	-10.1459
40	-10.1462
werk	-10.1463
▁schwer	-10.1463
ON	-10.1464
▁menu	-10.147
▁angesichts	-10.1474
▁Red	-10.1485
▁fine	-10.1485
▁death	-10.1486
▁Spanien	-10.1486
▁Although	-10.1489
ub	-10.149
▁transparency	-10.149
▁aktuellen	-10.1491
▁correct	-10.1495
ki	-10.1496
▁europäischer	-10.1496
▁Staat	-10.1497
▁email	-10.1499
vis	-10.1503
▁Su	-10.151
▁sofort	-10.1512
▁bessere	-10.1518
▁gefunden	-10.1526
ag	-10.1529
ix	-10.1529
▁bezüglich	-10.1535
▁electronic	-10.1538
▁employees	-10.1539
▁congratulate	-10.1545
▁Klein	-10.1545
▁payment	-10.1546
▁wider	-10.1547
▁integrated	-10.1551
▁benefits	-10.1554
▁parking	-10.1554
cu	-10.1558
▁University	-10.1558
▁Licht	-10.156
ah	-10.1565
▁elements	-10.1569
ide	-10.1569
▁kannst	-10.1573
ction	-10.1579
▁1997	-10.1586
▁Anti	-10.1586
▁numerous	-10.1586
▁erklärt	-10.1588
od	-10.1588
▁ne	-10.159
▁challenge	-10.1593
▁geschaffen	-10.1593
▁zehn	-10.16
▁Human	-10.1603
▁implement	-10.1607
tri	-10.1609
▁applied	-10.1615
▁erwartet	-10.1619
▁70	-10.1619
▁talk	-10.1621
ship	-10.1624
▁Verwaltung	-10.1632
all	-10.1632
▁Chinese	-10.1633
▁bathroom	-10.1635
▁reality	-10.1642
▁weder	-10.1648
▁DVD	-10.1652
▁sent	-10.1656
▁Nr	-10.1657
▁influence	-10.1664
St	-10.1666
▁Your	-10.1671
▁Werte	-10.1675
▁Furthermore	-10.1677
▁types	-10.168
▁90	-10.1685
▁entsprechend	-10.1687
▁poverty	-10.1688
▁Directive	-10.1689
▁note	-10.1691
satz	-10.1694
▁häufig	-10.1694
▁flexible	-10.1696
▁eher	-10.1699
arbeit	-10.1701
▁elections	-10.1711
▁daily	-10.1713
▁Cor	-10.1715
▁waste	-10.1715
▁automatisch	-10.1719
▁begrüße	-10.172
▁saying	-10.172
wa	-10.172
▁doubt	-10.1724
▁vital	-10.1734
▁letzte	-10.1735
▁instrument	-10.1738
▁child	-10.1738
▁sieht	-10.174
ising	-10.1743
▁x	-10.1743
▁met	-10.1748
▁thought	-10.1752
▁diejenigen	-10.1753
▁processes	-10.1755
▁crucial	-10.1757
▁Heute	-10.1759
▁cut	-10.1763
▁consequences	-10.1766
▁solidarity	-10.1768
▁Fach	-10.1769
▁friends	-10.1775
▁Frieden	-10.1778
▁Regeln	-10.178
PL	-10.1782
▁photo	-10.1786
▁analysis	-10.1786
▁Datei	-10.1788
Ver	-10.1792
▁official	-10.1793
▁beyond	-10.1793
▁challenges	-10.1794
▁Port	-10.1794
▁bringt	-10.1797
▁par	-10.1806
ron	-10.1806
ini	-10.1807
▁rise	-10.1808
▁Präsidenten	-10.1808
svorschriften	-10.1809
▁reference	-10.1812
▁led	-10.1813
▁Sea	-10.182
▁Ni	-10.1821
markt	-10.1824
▁vergessen	-10.1827
▁terrace	-10.1832
▁ziehen	-10.1832
▁Wunsch	-10.1836
ow	-10.1838
▁beitragen	-10.1838
▁Technologie	-10.1838
press	-10.1841
▁beste	-10.1842
▁comprehensive	-10.1845
▁paid	-10.1847
▁inform	-10.1852
IS	-10.1855
­	-10.1857
ou	-10.186
sp	-10.1863
▁carry	-10.1865
vent	-10.1873
▁apartments	-10.1873
▁Aufgaben	-10.1874
feld	-10.1877
▁Ressourcen	-10.1888
▁mo	-10.1898
▁Linie	-10.1898
▁offen	-10.1901
▁advantage	-10.1902
▁lang	-10.1904
Sch	-10.191
▁Center	-10.191
▁entsprechenden	-10.1913
▁Q	-10.1917
▁ausschließlich	-10.1918
▁Bemühungen	-10.1919
▁practical	-10.192
▁tools	-10.192
▁secure	-10.1925
▁origin	-10.1926
▁te	-10.1932
▁offered	-10.1932
▁Fällen	-10.1934
▁happy	-10.1935
pi	-10.1938
▁größte	-10.1938
log	-10.194
▁getan	-10.1942
ort	-10.1948
tt	-10.1951
▁eindeutig	-10.1952
▁goes	-10.1953
Die	-10.1959
ssen	-10.1963
▁gelten	-10.1964
gar	-10.1966
▁Mediterranean	-10.1966
▁morning	-10.1967
ue	-10.1973
▁Sozial	-10.1978
▁gerecht	-10.1979
▁colleagues	-10.1981
▁Instrument	-10.1998
▁Systems	-10.2
▁sort	-10.2001
▁Monaten	-10.2011
▁verhindern	-10.2011
▁machine	-10.2014
Schlusselwortern	-10.202
hn	-10.2023
▁Modell	-10.2024
based	-10.2024
isten	-10.2035
▁historic	-10.2037
▁Fuß	-10.2048
▁collection	-10.205
▁»	-10.2053
▁Even	-10.2054
▁contribute	-10.2065
▁fun	-10.2067
▁Tor	-10.2071
▁Besuch	-10.2072
▁scientific	-10.2075
ei	-10.2081
▁minimum	-10.2083
▁foot	-10.2086
▁ex	-10.2087
▁sign	-10.2089
▁evening	-10.2093
▁star	-10.2094
▁suchen	-10.2101
▁server	-10.2102
sion	-10.2115
▁Grand	-10.2116
▁Natürlich	-10.212
▁tomorrow	-10.2121
▁Green	-10.2123
▁Innovation	-10.213
ski	-10.2135
▁genannten	-10.2143
▁Air	-10.2144
▁hätten	-10.2145
ations	-10.215
▁tourist	-10.2152
▁modified	-10.2156
▁kam	-10.2157
ari	-10.2158
▁Val	-10.2163
▁Public	-10.2166
▁ways	-10.2166
▁Microsoft	-10.2173
ju	-10.2173
▁Russian	-10.2174
▁Ob	-10.2175
▁Room	-10.2176
▁Amendment	-10.2177
▁requires	-10.2178
ER	-10.2178
▁Klima	-10.2181
▁green	-10.2181
amp	-10.2182
▁implemented	-10.2185
▁paar	-10.2186
▁Flug	-10.2191
▁Stand	-10.2191
▁anderem	-10.2193
▁tra	-10.2193
▁bank	-10.2194
ny	-10.2195
▁adopt	-10.2198
hin	-10.2198
▁shopping	-10.2201
▁organisations	-10.2202
▁persons	-10.2202
▁love	-10.2205
punkt	-10.2207
van	-10.2207
▁abge	-10.2207
gg	-10.2207
▁nimmt	-10.2212
▁relating	-10.2217
tur	-10.222
▁infrastructure	-10.222
▁Garten	-10.2222
▁normal	-10.2238
▁Austria	-10.2241
▁Gesundheits	-10.2245
TA	-10.2246
▁ideas	-10.2249
▁Atmosphäre	-10.225
Ge	-10.2251
▁published	-10.2254
▁richtige	-10.2256
ada	-10.2258
▁Mac	-10.2261
▁vollständig	-10.2265
▁street	-10.2266
▁verpflichtet	-10.2271
▁monitoring	-10.2278
hu	-10.2279
▁starting	-10.228
▁gewesen	-10.2284
▁Viele	-10.229
▁sun	-10.2294
▁administrative	-10.2295
▁port	-10.2302
ib	-10.2304
▁sales	-10.2305
▁negative	-10.2308
wi	-10.2309
▁growing	-10.2315
▁caused	-10.2315
ability	-10.2321
▁zusätzliche	-10.2324
▁vi	-10.2332
▁operating	-10.2332
▁berücksichtigt	-10.2337
▁efficiency	-10.2337
▁selection	-10.2339
▁Bürgerinnen	-10.2343
ys	-10.2343
▁join	-10.2348
▁ready	-10.235
▁erlaubt	-10.2359
▁maximum	-10.236
▁fordern	-10.2362
▁clients	-10.2371
▁weeks	-10.2373
▁forces	-10.2374
board	-10.2378
▁accordance	-10.238
ru	-10.2381
▁Conference	-10.2382
▁border	-10.2382
▁Spieler	-10.2383
▁strategic	-10.2383
▁usw	-10.2384
▁Tagen	-10.2384
▁establish	-10.2387
è	-10.2389
▁Wo	-10.2391
pass	-10.2392
park	-10.2392
▁While	-10.2395
▁garden	-10.2402
▁Ha	-10.2406
ries	-10.2411
▁Wi	-10.2412
▁Opfer	-10.2413
▁überhaupt	-10.2417
▁Praxis	-10.242
▁decide	-10.2426
▁erfüllen	-10.2432
▁target	-10.2435
▁Airport	-10.2436
▁Rechnung	-10.2438
▁Vertreter	-10.2438
▁anything	-10.2439
rn	-10.2443
▁Te	-10.2443
Ma	-10.2444
▁les	-10.2446
▁Restaurants	-10.2447
▁Installation	-10.2448
teil	-10.2451
▁Ku	-10.2453
uch	-10.2453
▁motion	-10.2457
▁Armut	-10.2459
▁Real	-10.2461
zer	-10.2462
▁sometimes	-10.2465
▁Solidarität	-10.2471
▁Durchführung	-10.2471
▁Erfahrungen	-10.2481
▁warum	-10.2485
▁Sitzung	-10.2485
oder	-10.2497
▁extent	-10.25
▁Download	-10.2508
▁ad	-10.2513
▁Schritte	-10.2517
▁technologies	-10.2522
▁zahlreichen	-10.2532
▁sports	-10.2533
▁Winter	-10.2536
▁Bürgern	-10.2546
25	-10.2546
▁schützen	-10.2546
▁probably	-10.2549
▁Augen	-10.2553
▁Best	-10.2554
RO	-10.2556
ov	-10.256
pf	-10.2562
▁stress	-10.2565
hotel	-10.2569
▁Lassen	-10.2571
▁Vergangenheit	-10.2573
▁Aspekte	-10.2573
▁encourage	-10.2573
▁More	-10.2575
▁swimming	-10.258
▁́	-10.258
cher	-10.2581
▁terrorism	-10.2582
druck	-10.2589
▁benutzt	-10.2592
▁worldwide	-10.2595
▁farmers	-10.2597
▁options	-10.26
ado	-10.2601
▁Annahme	-10.2612
▁setzt	-10.2614
sta	-10.2617
▁Hoch	-10.2619
▁gesetzt	-10.262
▁stimmen	-10.2627
▁Terrorismus	-10.2627
▁lives	-10.263
▁release	-10.2633
schen	-10.2634
ay	-10.2641
▁voting	-10.2647
▁st	-10.2651
▁genutzt	-10.2652
▁Vertrauen	-10.2659
▁beide	-10.266
▁jeweiligen	-10.2662
▁south	-10.2664
ware	-10.2668
▁Öl	-10.2668
▁Thank	-10.2669
sverfahren	-10.2672
▁Denn	-10.2676
▁players	-10.2681
tion	-10.2687
▁interested	-10.269
▁28	-10.269
*	-10.2693
▁Einrichtung	-10.2693
▁vorgelegt	-10.2699
▁getroffen	-10.2699
▁Wer	-10.2702
▁Forschungs	-10.2705
isiert	-10.2714
jo	-10.2714
▁wählen	-10.2717
▁assessment	-10.2718
▁stets	-10.2721
▁Motor	-10.2722
kraft	-10.2726
▁Google	-10.2735
▁darstellt	-10.2746
▁Partei	-10.2747
▁Des	-10.2751
▁lines	-10.2754
▁Firmen	-10.2761
ya	-10.2765
lic	-10.2766
▁sa	-10.2766
stellung	-10.2769
▁historischen	-10.2774
▁administration	-10.2776
▁Groß	-10.278
▁Nacht	-10.2787
▁broad	-10.2789
▁Zweitens	-10.279
▁exist	-10.2793
▁außerhalb	-10.2799
▁1996	-10.2799
cken	-10.2802
▁hold	-10.2804
▁zumindest	-10.2807
▁Risiko	-10.2809
▁spa	-10.281
▁wanted	-10.2813
▁methods	-10.2822
▁26	-10.2823
▁beginnen	-10.2824
▁Einige	-10.2833
dy	-10.2835
▁Mitteilung	-10.2837
▁traffic	-10.2837
▁accepted	-10.2837
ice	-10.2841
▁Roma	-10.2844
▁Frankfurt	-10.2849
▁Abend	-10.285
▁appear	-10.2851
▁trotz	-10.2854
▁despite	-10.2866
▁größere	-10.287
▁Angelegenheit	-10.2873
erstatterin	-10.2879
▁deine	-10.2882
▁Bio	-10.2884
▁businesses	-10.2886
▁Prozent	-10.2889
24	-10.29
▁geändert	-10.29
▁fresh	-10.2903
▁languages	-10.2904
▁Afghanistan	-10.2905
▁Security	-10.2908
▁red	-10.2908
▁verfügbar	-10.2909
▁erzielt	-10.2909
▁extensive	-10.291
▁genug	-10.292
▁Gemeinschafts	-10.2938
▁Volk	-10.2942
▁remember	-10.2942
▁walking	-10.2942
nes	-10.2944
▁Berichts	-10.2947
▁Ireland	-10.2952
▁Gast	-10.2953
▁heutigen	-10.2957
▁ausdrücklich	-10.2961
▁voice	-10.2964
▁visitors	-10.2966
▁raised	-10.2966
sk	-10.2972
▁Dazu	-10.2973
▁Roman	-10.2973
▁trying	-10.2973
let	-10.2973
▁Sitz	-10.2978
▁Swiss	-10.2978
▁Dann	-10.2979
▁Parteien	-10.2982
▁transparent	-10.2982
lle	-10.2983
▁lost	-10.2985
ör	-10.2985
ran	-10.299
▁Zeichen	-10.2996
▁absolutely	-10.2999
60	-10.3
▁Schwierigkeiten	-10.3003
▁Gold	-10.3007
rü	-10.3007
▁entsprechende	-10.3009
pp	-10.3015
▁sur	-10.3023
car	-10.3035
▁35	-10.3036
▁hot	-10.3037
can	-10.3043
▁«	-10.3045
▁persönlichen	-10.305
▁Nun	-10.3053
▁Angelegenheiten	-10.3057
arbeiten	-10.3059
▁Allerdings	-10.3061
▁innovation	-10.3063
▁erinnern	-10.3068
rate	-10.307
▁gra	-10.3071
▁Tour	-10.3077
ord	-10.308
▁Moment	-10.3081
19	-10.3083
▁path	-10.3083
▁spend	-10.3085
▁Hinsicht	-10.3086
▁games	-10.3086
▁deutschen	-10.3098
▁folgenden	-10.3099
▁technischen	-10.3099
▁limit	-10.31
▁criminal	-10.3109
▁UK	-10.311
▁aktuelle	-10.311
plan	-10.3117
▁Tre	-10.3121
De	-10.3133
▁threat	-10.3134
▁bald	-10.3135
▁Ki	-10.3136
barkeit	-10.3137
▁=	-10.314
PT	-10.3146
▁modernen	-10.315
ff	-10.3151
EC	-10.3152
zug	-10.3157
▁unten	-10.3165
▁Moreover	-10.3169
▁namely	-10.3169
▁overall	-10.3171
▁Secondly	-10.3171
▁relationship	-10.3172
▁Kern	-10.3172
▁lies	-10.3173
technik	-10.3186
▁bad	-10.3188
▁kennen	-10.3199
▁lo	-10.3202
▁überzeugt	-10.321
▁eben	-10.3211
ign	-10.3211
▁Just	-10.3213
▁images	-10.322
ano	-10.3223
▁Beitritt	-10.3224
ez	-10.3224
▁2.	-10.3226
▁welches	-10.3227
off	-10.3227
▁changed	-10.323
▁annual	-10.3231
heim	-10.3234
▁Stil	-10.3236
▁Währung	-10.3237
▁leaders	-10.3241
▁folgen	-10.3241
ther	-10.3243
▁fish	-10.3243
▁übernehmen	-10.3245
▁player	-10.325
▁ihres	-10.3251
Hotel	-10.3252
▁His	-10.3253
▁sectors	-10.3254
▁Körper	-10.3255
▁Ve	-10.3258
day	-10.3258
▁elegant	-10.3261
▁Vergleich	-10.3265
▁accession	-10.3266
▁wrong	-10.3268
▁fire	-10.3268
▁debt	-10.3271
▁cover	-10.3273
La	-10.3274
▁People	-10.328
▁Werk	-10.3283
▁phone	-10.3295
▁gesehen	-10.3297
▁borders	-10.3298
spiel	-10.3305
▁Arbeitsplätze	-10.3306
▁allgemeinen	-10.3311
side	-10.3311
▁month	-10.3312
▁yourself	-10.3313
▁refer	-10.3317
ping	-10.3317
▁Protokoll	-10.3319
▁fall	-10.3321
▁Kauf	-10.3324
▁opening	-10.3328
daten	-10.3336
AS	-10.3337
▁client	-10.3339
ica	-10.3342
▁Osten	-10.3343
▁Österreich	-10.3351
▁demands	-10.3351
▁representatives	-10.3357
▁goal	-10.3359
▁character	-10.336
▁intended	-10.336
▁Only	-10.3364
▁Gipfel	-10.3365
iger	-10.3368
▁heard	-10.3368
▁Code	-10.337
rt	-10.3371
▁endlich	-10.3372
▁regime	-10.3372
▁Struktur	-10.3372
bus	-10.3374
▁Mehr	-10.3374
hand	-10.3377
▁vorgeschlagen	-10.338
▁trust	-10.3381
▁expressed	-10.3383
res	-10.3384
hof	-10.3385
▁Material	-10.3388
▁Zustimmung	-10.3395
ight	-10.3396
▁jene	-10.3396
▁moderne	-10.3397
gehen	-10.3403
▁entscheiden	-10.3404
▁begrüßen	-10.3405
stadt	-10.3406
ong	-10.3408
▁fa	-10.3412
▁—	-10.3412
Q	-10.3416
▁Agreement	-10.3419
▁gelegen	-10.342
▁verbessert	-10.3422
▁record	-10.3423
▁processing	-10.3428
▁worked	-10.343
▁genannt	-10.3431
▁Mon	-10.3436
▁Ju	-10.3436
▁suggest	-10.3444
eu	-10.3449
▁proper	-10.3449
▁committed	-10.3449
▁season	-10.3453
▁Fest	-10.3461
▁Milliarden	-10.3464
▁Ci	-10.3464
ley	-10.3467
ions	-10.3468
▁zudem	-10.3468
▁cities	-10.3469
▁Obwohl	-10.3473
▁festgelegt	-10.3475
▁vorgesehen	-10.3476
▁4.	-10.3477
▁gezeigt	-10.3481
▁bitten	-10.3483
▁Einfluss	-10.3487
▁privaten	-10.349
cing	-10.3499
än	-10.35
▁NATO	-10.35
▁Erstens	-10.3502
▁bewusst	-10.3505
ding	-10.351
▁ability	-10.3513
▁Leute	-10.3514
▁powers	-10.3516
serv	-10.3519
▁talking	-10.3525
▁erstellt	-10.3526
nde	-10.353
▁Ta	-10.3532
▁Wann	-10.3533
▁unbedingt	-10.3541
▁Costa	-10.3545
▁Ist	-10.3547
▁Wohn	-10.3548
▁God	-10.3549
▁advance	-10.3552
rad	-10.3553
service	-10.356
ps	-10.3561
▁Stabilität	-10.3561
▁conclusion	-10.3569
▁initiatives	-10.3569
▁feature	-10.357
▁running	-10.3572
▁alone	-10.358
▁discuss	-10.3582
▁Board	-10.3584
room	-10.3586
▁fields	-10.3594
▁Konzept	-10.3597
▁Economic	-10.3598
▁Rad	-10.3598
▁Netzwerk	-10.36
▁Falle	-10.3607
ella	-10.3609
dem	-10.361
▁families	-10.361
▁wonderful	-10.361
light	-10.3613
▁mainly	-10.3613
▁planning	-10.3613
▁Anerkennung	-10.3616
▁Irak	-10.362
▁Menschenrechts	-10.3621
▁command	-10.3623
▁banks	-10.3624
▁Tätigkeit	-10.3627
80	-10.363
▁cohesion	-10.3643
▁save	-10.3646
ble	-10.3647
▁purchase	-10.3652
▁justice	-10.3659
▁placed	-10.366
ita	-10.3662
▁stärker	-10.3665
▁Telefon	-10.3669
▁Hause	-10.3672
▁Ausbildung	-10.3674
▁database	-10.3675
▁kaum	-10.3677
▁improved	-10.3677
▁approved	-10.3681
ola	-10.3686
unter	-10.3687
▁Regel	-10.3688
bild	-10.3691
▁falls	-10.3691
▁bi	-10.3691
▁structural	-10.3694
▁Anstrengungen	-10.3694
▁gefordert	-10.3694
▁Holz	-10.3697
▁nationale	-10.3706
▁John	-10.3706
gesellschaft	-10.3708
hen	-10.3708
▁Asia	-10.3709
▁Vorteile	-10.3718
ins	-10.372
▁plans	-10.3727
▁currency	-10.3732
▁increasingly	-10.3732
▁Verpflichtungen	-10.3733
▁Ausschuß	-10.3734
▁calls	-10.3738
▁Aufnahme	-10.374
▁strengthen	-10.3741
▁3.	-10.3742
mittel	-10.3746
▁fellow	-10.3749
ros	-10.375
▁Sal	-10.3752
▁affected	-10.3752
▁police	-10.3754
):	-10.3758
▁spirit	-10.3762
▁circumstances	-10.3764
wie	-10.3767
▁students	-10.3772
▁geleistet	-10.3783
▁income	-10.3784
▁break	-10.3785
▁rein	-10.3786
▁bilden	-10.3787
▁beschlossen	-10.3789
▁suitable	-10.3796
▁whom	-10.3797
▁began	-10.3801
▁ri	-10.3803
are	-10.3805
▁color	-10.3808
tische	-10.3808
ria	-10.3812
▁Idee	-10.3813
▁Sonder	-10.3813
▁Einzel	-10.3819
▁Foto	-10.3821
fahrt	-10.3827
▁wesentlich	-10.3832
▁Abschluss	-10.3833
▁permanent	-10.3834
▁Kapital	-10.3839
▁powerful	-10.3839
15	-10.384
à	-10.3842
▁automatically	-10.3842
▁sitting	-10.3849
▁veröffentlicht	-10.385
zo	-10.3853
▁Dienste	-10.3853
▁Karte	-10.3856
▁prior	-10.3857
▁ho	-10.386
▁Privat	-10.3863
▁Frei	-10.3865
▁Nations	-10.3866
▁reduced	-10.3866
▁white	-10.3867
▁critical	-10.3868
▁emissions	-10.3868
▁Falls	-10.3873
▁Organisationen	-10.3874
hm	-10.3876
▁entspricht	-10.3879
▁manner	-10.3881
▁Überwachung	-10.3885
▁delivery	-10.3886
▁priorities	-10.3887
▁Boden	-10.3893
eck	-10.3894
▁Station	-10.3897
▁exercise	-10.3898
▁Ober	-10.3902
▁comments	-10.3903
▁comment	-10.3904
▁erkennen	-10.3904
▁ausge	-10.3905
▁wahrscheinlich	-10.3906
▁confidence	-10.3907
▁Iraq	-10.3907
▁pa	-10.3908
▁remind	-10.3911
▁Kar	-10.3912
▁crime	-10.3915
▁Kompromiss	-10.3916
▁entschieden	-10.3917
▁Bis	-10.392
work	-10.3922
▁unemployment	-10.3926
▁Kritik	-10.3928
▁groß	-10.3932
mes	-10.3933
“,	-10.3936
sis	-10.3936
▁scope	-10.3937
▁participation	-10.3938
▁Enterprise	-10.394
▁touch	-10.3942
▁che	-10.3942
▁firm	-10.3943
▁Charakter	-10.3946
▁shower	-10.3946
▁klare	-10.395
▁mass	-10.3951
▁1990	-10.3951
q	-10.3953
ute	-10.3953
▁Leistung	-10.3959
▁Besucher	-10.3963
▁Vereinbarung	-10.3964
par	-10.3965
▁geeignet	-10.3969
▁Schlüssel	-10.3971
ons	-10.3972
qu	-10.3973
▁braucht	-10.3974
▁reception	-10.3975
▁ensuring	-10.3978
▁plus	-10.3981
▁else	-10.3981
▁kitchen	-10.3982
▁einzu	-10.3983
ast	-10.3987
tage	-10.3993
TV	-10.3995
▁berücksichtigen	-10.3999
welt	-10.4008
▁export	-10.4013
▁recommend	-10.4015
▁Süd	-10.4015
▁Haltung	-10.4016
▁neues	-10.4018
ists	-10.4019
called	-10.4021
stehen	-10.4023
▁Social	-10.4034
sche	-10.4038
://	-10.4044
fragen	-10.4048
bare	-10.4048
▁Produktions	-10.4055
▁absolut	-10.406
ges	-10.4065
▁außer	-10.407
AL	-10.4075
▁Wahlen	-10.4077
▁specifically	-10.408
▁Pu	-10.4082
▁tour	-10.4086
▁Kriterien	-10.4086
▁Christian	-10.4086
▁folgende	-10.4087
▁"...	-10.4089
leben	-10.4091
▁Afrika	-10.4091
▁oben	-10.4095
@	-10.4095
▁reforms	-10.4095
▁victims	-10.4096
tum	-10.4099
▁Straßen	-10.4103
▁Außen	-10.4107
▁black	-10.4108
▁ban	-10.4114
▁played	-10.4115
▁erfüllt	-10.4121
systeme	-10.4122
▁Indeed	-10.4126
▁alte	-10.4129
▁mindestens	-10.413
pt	-10.4132
▁Si	-10.4132
▁sport	-10.4132
▁India	-10.4136
▁serve	-10.4142
▁Czech	-10.4144
fin	-10.4147
▁competitive	-10.4151
▁nachdem	-10.4161
▁establishment	-10.4161
70	-10.4163
▁Gas	-10.417
▁camera	-10.4171
▁Anspruch	-10.4171
▁select	-10.4173
▁brand	-10.4175
cy	-10.418
▁tabled	-10.4185
▁agriculture	-10.4188
▁erwähnt	-10.4188
▁introduced	-10.4196
▁Agenda	-10.4199
▁danke	-10.4201
▁seines	-10.4201
▁map	-10.4205
▁installation	-10.4208
▁hervor	-10.421
kosten	-10.4214
▁Inhalte	-10.4214
▁hinweisen	-10.4215
rd	-10.4218
▁mehreren	-10.4218
AT	-10.4219
tan	-10.4221
▁represent	-10.4223
▁getting	-10.4223
▁partnership	-10.4224
▁telephone	-10.4225
▁Bra	-10.4231
▁inside	-10.4232
▁demokratischen	-10.4236
▁Gott	-10.4236
▁institutional	-10.4237
zimmer	-10.424
▁effectively	-10.4243
▁Gen	-10.4244
▁geschützt	-10.4245
▁Each	-10.425
bra	-10.4255
▁Ze	-10.4258
tisch	-10.4262
16	-10.4264
▁screen	-10.4267
▁usually	-10.4269
▁served	-10.4271
▁detailed	-10.4272
▁super	-10.4275
▁Ausgaben	-10.428
▁referred	-10.4281
▁ergreifen	-10.4283
▁angezeigt	-10.4283
▁nächste	-10.4284
▁Hintergrund	-10.4286
▁display	-10.4289
▁Sp	-10.429
▁aimed	-10.4291
▁Mio	-10.4292
▁umgesetzt	-10.4295
▁Sektor	-10.4295
isieren	-10.4298
▁technische	-10.4298
hilfe	-10.4299
▁Waren	-10.4299
▁larger	-10.4302
lan	-10.4307
▁summit	-10.431
▁Homepage	-10.4317
legen	-10.4321
schau	-10.4322
▁mag	-10.4323
preis	-10.4325
▁gesprochen	-10.4326
▁Antrag	-10.4326
▁regular	-10.4327
▁Policy	-10.4332
wirtschaft	-10.4334
▁gegründet	-10.4335
▁ständig	-10.4335
▁euch	-10.4336
▁pleasant	-10.4338
ED	-10.4339
▁glauben	-10.4341
▁Middle	-10.4342
▁Mitgliedstaat	-10.4345
seite	-10.4349
▁rural	-10.435
▁150	-10.4356
▁una	-10.4357
▁exactly	-10.4358
▁Suche	-10.4358
▁abzu	-10.4365
▁(19	-10.4365
▁winter	-10.4366
▁Sprachen	-10.4366
Ã	-10.4366
▁instance	-10.4369
ete	-10.4369
▁speziell	-10.4376
▁Last	-10.4376
▁valid	-10.4378
▁angesprochen	-10.4379
▁Engagement	-10.438
▁gleiche	-10.4382
▁benutzen	-10.4383
▁benötigt	-10.4385
▁Nutzer	-10.4386
▁akzeptieren	-10.4388
Le	-10.4388
▁si	-10.4391
▁Wa	-10.4392
▁anzu	-10.4395
▁animals	-10.4397
▁attack	-10.4397
ham	-10.4399
▁hear	-10.4401
▁pi	-10.4403
▁Fortschritt	-10.4403
sel	-10.4407
▁failure	-10.4409
▁precisely	-10.4409
▁purposes	-10.441
▁wood	-10.4415
▁protected	-10.4417
▁Paket	-10.4418
ick	-10.442
▁ging	-10.4423
▁1995	-10.4423
fo	-10.4423
▁anerkannt	-10.4423
▁Stein	-10.4424
▁sicherzustellen	-10.4424
▁becoming	-10.4425
▁mm	-10.4426
set	-10.4427
lar	-10.4431
▁Qu	-10.4432
▁buy	-10.4432
▁Casino	-10.4433
▁besonderen	-10.4434
▁Terrasse	-10.4437
▁Za	-10.4437
tischen	-10.4439
gra	-10.4441
▁Chance	-10.4443
▁measure	-10.4444
▁Most	-10.4445
ces	-10.4445
▁31	-10.4447
▁2020	-10.4449
▁otherwise	-10.445
▁paper	-10.445
▁bear	-10.445
SE	-10.4476
▁combat	-10.4477
▁sources	-10.4479
▁Sub	-10.4479
▁manage	-10.4481
▁budgetary	-10.4482
Ro	-10.4483
▁laws	-10.4484
▁discussed	-10.4484
▁min	-10.4487
▁stated	-10.449
▁dealing	-10.4493
▁bestimmt	-10.4494
AR	-10.45
▁Nutzen	-10.4501
▁Komfort	-10.4502
lig	-10.4503
pre	-10.4508
▁worth	-10.4508
▁eingerichtet	-10.451
▁Zeitraum	-10.4511
eg	-10.4523
▁Banken	-10.453
▁peaceful	-10.4531
MA	-10.4532
santrag	-10.4541
-1	-10.4547
▁bestehenden	-10.4548
▁po	-10.4549
lä	-10.455
▁Schließlich	-10.4552
▁Reformen	-10.4553
▁spacious	-10.4554
ition	-10.4555
▁Zweck	-10.4562
▁booking	-10.4562
▁Zudem	-10.4562
dal	-10.4563
▁managed	-10.4565
▁einge	-10.4566
▁introduction	-10.4567
▁Betrieb	-10.4568
▁Mitte	-10.4568
▁Zunächst	-10.457
SA	-10.4571
buch	-10.4574
▁metres	-10.4574
▁fallen	-10.4578
▁Festival	-10.4578
▁February	-10.4579
▁deep	-10.4582
bin	-10.4582
š	-10.4584
ably	-10.4588
▁element	-10.4593
▁aktiv	-10.4593
▁medical	-10.4594
ged	-10.4595
90	-10.4595
▁fahren	-10.46
▁functions	-10.4602
▁möglicherweise	-10.4602
▁Kenntnis	-10.4603
▁Versuch	-10.4608
▁represents	-10.4615
▁Schengen	-10.4615
Pro	-10.4616
▁Ihres	-10.462
▁format	-10.4623
▁introduce	-10.4623
▁entry	-10.4625
▁Great	-10.4627
▁zuletzt	-10.4628
▁ange	-10.463
▁globalen	-10.463
▁likely	-10.4631
▁Super	-10.4633
▁32	-10.4634
▁Rede	-10.4636
▁Titel	-10.4637
▁freuen	-10.4637
categories	-10.4639
▁covered	-10.4641
▁thousands	-10.4642
▁bath	-10.4645
▁actual	-10.4648
▁Herstellung	-10.465
▁won	-10.4651
▁track	-10.4654
▁prüfen	-10.4658
▁umfassende	-10.4661
▁expected	-10.4662
nis	-10.4664
▁funktioniert	-10.4665
▁guidelines	-10.4666
▁happen	-10.4667
ile	-10.467
▁surface	-10.4675
We	-10.4682
▁trip	-10.4684
▁herzlich	-10.4688
▁followed	-10.4691
▁earlier	-10.4694
▁Office	-10.4696
▁4-	-10.4701
▁Worte	-10.4703
▁Regelung	-10.4704
▁selected	-10.4704
ement	-10.4706
▁lösen	-10.4708
▁liberal	-10.4711
▁Fe	-10.4712
▁Dokument	-10.4717
▁Kooperation	-10.4719
▁provision	-10.472
cal	-10.4723
▁konkrete	-10.4723
▁exclusive	-10.4729
▁Straße	-10.473
▁bezeichnet	-10.4732
▁discussions	-10.4735
▁finanziellen	-10.4736
▁Monate	-10.4737
▁closely	-10.4737
▁Wege	-10.4738
▁29	-10.4742
▁Hafen	-10.4742
▁).	-10.4743
▁Unterkategorien	-10.4746
▁bequem	-10.4749
▁Anpassung	-10.4751
▁Name	-10.4753
ato	-10.4757
▁combination	-10.4758
▁ra	-10.4762
▁hoffen	-10.4764
▁loss	-10.4766
SP	-10.4769
▁Research	-10.4769
▁Partnerschaft	-10.4769
▁respond	-10.4771
▁bo	-10.4775
▁fund	-10.4783
▁dienen	-10.4786
uk	-10.4793
▁Ste	-10.4801
▁listed	-10.4801
ob	-10.4804
jahr	-10.4805
ün	-10.4806
▁Click	-10.4807
13	-10.481
ING	-10.481
▁Ga	-10.481
▁Why	-10.4812
▁Erst	-10.4813
▁Pakistan	-10.4813
▁degree	-10.4816
▁Home	-10.4817
old	-10.4818
▁Meter	-10.4819
▁news	-10.482
▁jederzeit	-10.4821
house	-10.4821
▁ISO	-10.4824
▁understanding	-10.4827
▁dr	-10.4827
▁schwierig	-10.4827
entwicklung	-10.4827
over	-10.483
▁beziehen	-10.4834
position	-10.4835
▁Schluss	-10.4844
▁vermeiden	-10.4844
av	-10.4847
▁risks	-10.4851
▁wünschen	-10.4852
▁author	-10.4854
▁enterprises	-10.4855
▁stock	-10.4862
99	-10.4863
▁notwendigen	-10.4867
▁cuisine	-10.4868
▁Belarus	-10.4869
▁Wirkung	-10.4872
▁trans	-10.4874
▁improving	-10.4877
hl	-10.488
▁discover	-10.4885
▁Technologien	-10.4887
▁Aufbau	-10.4888
burg	-10.4895
▁Anteil	-10.4897
▁detail	-10.4897
▁title	-10.4898
▁Forderung	-10.4898
nic	-10.49
eur	-10.4902
21	-10.4906
Fi	-10.4906
halt	-10.4909
▁immigration	-10.4912
▁Gar	-10.4913
ple	-10.4913
wert	-10.4914
▁speech	-10.4915
▁Funktionen	-10.4916
▁linked	-10.4919
▁Street	-10.4923
▁Tier	-10.4923
▁says	-10.4924
▁freien	-10.4927
▁unabhängig	-10.4928
▁Forum	-10.4928
▁Vielfalt	-10.4932
▁weak	-10.4933
▁teilweise	-10.4935
▁animal	-10.4935
dra	-10.4935
▁programs	-10.4935
▁ausreichend	-10.494
▁Tu	-10.4942
▁vorhanden	-10.4944
tten	-10.4948
▁Menge	-10.4949
iti	-10.4949
▁tourism	-10.495
ette	-10.4952
▁Mi	-10.4955
▁deliver	-10.4961
▁opened	-10.4963
97	-10.4963
▁Pan	-10.4965
09	-10.4966
▁länger	-10.497
istic	-10.4972
▁fear	-10.4974
ey	-10.4975
lt	-10.4977
▁Ruhe	-10.4977
▁lesen	-10.4987
▁Wissen	-10.4989
▁sufficient	-10.4992
0.000	-10.4992
▁Switzerland	-10.4996
▁Sol	-10.4997
▁Mann	-10.4998
▁Greece	-10.4999
▁Dateien	-10.5001
▁button	-10.5001
▁wer	-10.5001
▁considerable	-10.5002
ero	-10.5004
▁Studie	-10.5007
▁seem	-10.5008
▁Konflikt	-10.5009
▁Begriff	-10.5009
▁verändert	-10.5014
mat	-10.5019
cker	-10.5019
▁fruit	-10.5021
oli	-10.5025
▁went	-10.5031
lia	-10.5032
▁gave	-10.5033
▁signal	-10.5038
gebiet	-10.5039
▁sicherlich	-10.504
ep	-10.504
▁5.	-10.5042
▁verfolgt	-10.5047
▁spezielle	-10.5048
act	-10.5049
▁Zweifel	-10.5052
▁Prüfung	-10.5052
▁sagt	-10.5053
▁Messe	-10.5056
▁presence	-10.5056
▁Gesetzgebung	-10.5059
▁Kindern	-10.5061
▁desire	-10.5062
▁Entwicklungs	-10.5063
▁Bush	-10.5067
▁Rooms	-10.5073
mark	-10.5074
▁Bay	-10.5074
▁garantiert	-10.5087
ST	-10.5089
▁gern	-10.509
sized	-10.5092
▁Santa	-10.5093
14	-10.5096
▁supporting	-10.5097
▁relax	-10.5099
▁Hamburg	-10.5103
▁Hoffnung	-10.5107
lauf	-10.5107
▁Stimme	-10.5107
▁mis	-10.5107
IN	-10.511
▁Grundsatz	-10.5111
▁interface	-10.5112
nahme	-10.5115
▁;	-10.5118
▁darunter	-10.5118
▁Einrichtungen	-10.5119
paket	-10.5121
▁definition	-10.5126
▁erzielen	-10.5131
▁race	-10.5133
▁Kommunikation	-10.5133
▁jeweils	-10.5141
▁dank	-10.5142
▁Gra	-10.5143
▁Produkten	-10.5144
▁Kurz	-10.5145
▁Apartments	-10.5145
▁Status	-10.5148
▁gelangen	-10.5148
▁seven	-10.5149
▁properly	-10.5149
back	-10.5149
▁resort	-10.515
ms	-10.5152
▁Tradition	-10.5152
▁operations	-10.5153
▁marketing	-10.5157
schlag	-10.5161
▁absolute	-10.5166
▁offensichtlich	-10.5167
▁average	-10.5167
▁win	-10.5168
pon	-10.5168
▁Par	-10.517
▁Februar	-10.5172
▁tradition	-10.5174
▁entweder	-10.5175
▁Band	-10.5179
▁intervention	-10.518
–	-10.5188
▁eingeführt	-10.5193
management	-10.5194
▁entstehen	-10.5194
▁entgegen	-10.5197
▁http	-10.5198
▁playing	-10.5199
▁fisheries	-10.52
▁install	-10.5201
met	-10.5201
▁näher	-10.5203
▁duty	-10.5205
zentrum	-10.5207
▁Großbritannien	-10.5211
▁bestätigt	-10.5211
▁Saint	-10.5214
▁beds	-10.5218
▁Guest	-10.5219
▁extend	-10.5219
har	-10.522
▁tätig	-10.5221
▁erhöhen	-10.5225
▁Stellen	-10.5228
▁wollte	-10.523
▁coordination	-10.5233
▁Mer	-10.5234
08	-10.5235
▁relate	-10.524
▁components	-10.524
fen	-10.5242
free	-10.5243
▁besuchen	-10.5243
▁übernachten	-10.5247
▁Sinn	-10.5248
las	-10.5251
▁entirely	-10.5252
▁45	-10.5253
izing	-10.5255
”.	-10.5256
▁Abschließend	-10.5256
▁Ben	-10.5259
maßnahmen	-10.5259
▁Madrid	-10.5261
▁Boot	-10.5262
▁networks	-10.5267
▁Polen	-10.5267
▁authority	-10.5269
▁Bre	-10.527
▁founded	-10.5271
▁Trade	-10.5271
▁typical	-10.5273
▁organisation	-10.5277
▁Griechenland	-10.5279
▁Ost	-10.5281
ral	-10.5281
▁rock	-10.5286
▁Martin	-10.5287
▁experts	-10.5291
е	-10.5292
part	-10.5295
making	-10.5295
▁Har	-10.5297
bu	-10.5297
▁Dem	-10.5297
istischen	-10.5299
▁gekommen	-10.5305
▁picture	-10.5306
▁competitiveness	-10.5306
cho	-10.5308
▁presidency	-10.5309
▁Europäer	-10.5309
cent	-10.5311
ender	-10.5312
▁campaign	-10.5313
▁buildings	-10.5314
▁Entwurf	-10.5315
▁difficulties	-10.5323
zahl	-10.5323
▁Künstler	-10.5323
▁generally	-10.5327
▁Paul	-10.534
▁Einigung	-10.5344
▁stimme	-10.5349
▁Brussels	-10.5354
▁domestic	-10.5357
▁wind	-10.5363
text	-10.5368
war	-10.5371
▁Dienst	-10.5373
▁betonen	-10.5374
▁square	-10.5376
▁coast	-10.538
▁propose	-10.5381
»	-10.5382
▁Vereint	-10.5383
▁Poland	-10.5385
▁district	-10.5386
▁kommenden	-10.5386
han	-10.5387
▁Schweiz	-10.539
▁spielt	-10.539
▁Every	-10.539
tz	-10.5393
▁welcher	-10.5394
pos	-10.5394
▁consideration	-10.5397
▁estate	-10.5398
▁Hall	-10.54
▁condition	-10.5401
▁Media	-10.5404
▁betrachtet	-10.5404
▁Dollar	-10.5407
▁aufmerksam	-10.5407
handel	-10.541
ska	-10.5411
▁Universität	-10.5413
dis	-10.5413
▁Waffen	-10.5417
▁Patent	-10.5417
▁Health	-10.5423
▁Com	-10.5423
station	-10.5425
▁Because	-10.5426
▁wären	-10.5429
▁Multi	-10.5429
▁Instrumente	-10.5429
▁informieren	-10.543
▁facing	-10.5432
ssystem	-10.5441
▁items	-10.5441
OR	-10.5441
=	-10.5447
▁hour	-10.5448
arten	-10.5449
▁Abgeordnete	-10.545
▁architecture	-10.5451
▁handeln	-10.5455
ank	-10.5456
▁lernen	-10.5457
▁attempt	-10.546
▁Irland	-10.5461
▁Mag	-10.5463
▁Veränderungen	-10.5469
▁Beschreibung	-10.5478
▁Webseite	-10.5479
▁li	-10.5481
cia	-10.5482
pl	-10.5482
▁Hersteller	-10.5482
▁Bewertung	-10.5483
ph	-10.5488
▁coffee	-10.549
▁darstellen	-10.5492
▁paragraph	-10.5492
▁science	-10.5501
▁phase	-10.5501
ux	-10.5502
▁attractive	-10.5512
▁Leistungen	-10.5514
▁IP	-10.5514
▁Don	-10.5516
▁Qualitäts	-10.5517
▁400	-10.5522
▁kon	-10.5529
▁defence	-10.5532
▁Van	-10.5533
mor	-10.5534
▁Lizenz	-10.5537
▁umfasst	-10.5538
▁opposition	-10.5538
▁Unfortunately	-10.5539
produktion	-10.554
▁mode	-10.5541
▁aspect	-10.5543
▁appeal	-10.5543
▁applies	-10.5545
▁Analyse	-10.5546
▁Option	-10.5548
▁Absatz	-10.5549
▁auszu	-10.5549
▁dynamic	-10.5549
▁Initiativen	-10.5549
▁ba	-10.555
▁PHP	-10.5552
▁Chi	-10.5554
RE	-10.5554
▁fragen	-10.5556
▁wa	-10.5556
▁bio	-10.5557
▁speaking	-10.5558
▁Leider	-10.5564
▁Netz	-10.5569
▁Teile	-10.557
▁op	-10.5571
▁votes	-10.5572
▁Regulation	-10.5575
▁vehicles	-10.5577
▁Peter	-10.5577
▁bu	-10.5578
▁erfolgen	-10.558
▁User	-10.5581
▁Jetzt	-10.5582
▁forget	-10.5583
▁plants	-10.5585
▁zentrale	-10.5587
▁finanzielle	-10.5587
▁Top	-10.5587
ving	-10.559
Ein	-10.5592
▁il	-10.5593
▁shops	-10.5595
▁Lake	-10.5596
▁Export	-10.5597
0,000	-10.5598
schrift	-10.5599
weise	-10.56
▁thinking	-10.5601
▁gewährleistet	-10.5602
▁dagegen	-10.5602
setzung	-10.5608
▁patent	-10.5617
year	-10.5618
▁fixed	-10.5632
▁erklären	-10.5634
▁EADS	-10.5635
▁Formen	-10.5639
▁arrival	-10.5641
▁couple	-10.5641
mas	-10.5641
▁Zwei	-10.5644
▁told	-10.5648
22	-10.5648
▁claim	-10.565
box	-10.5651
illa	-10.5651
AN	-10.5654
▁stärken	-10.5655
ec	-10.5655
RA	-10.5656
reg	-10.5656
▁north	-10.5659
ics	-10.5663
▁Live	-10.5664
▁durchaus	-10.5665
▁aufzu	-10.5667
▁Bestandteil	-10.5667
▁initial	-10.5667
▁erleben	-10.5668
▁Fonds	-10.5669
▁por	-10.5673
▁flexibility	-10.5675
verfahren	-10.5676
Pa	-10.5676
▁Association	-10.5678
▁Power	-10.5684
▁Königreich	-10.5686
▁Welche	-10.5687
▁Angaben	-10.5688
▁Via	-10.5689
35	-10.5694
▁Arbeiten	-10.5694
▁stable	-10.5698
▁bodies	-10.5701
▁translation	-10.5706
▁Link	-10.571
▁himself	-10.571
▁middle	-10.5711
nach	-10.5714
▁Botschaft	-10.5715
▁arbeitet	-10.5718
nder	-10.5719
▁machines	-10.572
▁Fisch	-10.5723
▁Gesetz	-10.5724
▁assist	-10.5724
▁evidence	-10.5726
▁erhöht	-10.5727
bb	-10.5729
era	-10.5731
▁Mess	-10.5732
17	-10.5738
▁Dimension	-10.574
acht	-10.5742
▁unternehmen	-10.5744
▁7.	-10.5748
▁verloren	-10.5749
▁Richtlinien	-10.575
▁Gefühl	-10.5751
▁Seine	-10.5757
▁myself	-10.5759
▁acht	-10.576
▁Geist	-10.576
▁According	-10.5764
verkehr	-10.5765
▁expression	-10.5766
▁6.	-10.5766
▁supports	-10.5774
▁freue	-10.5774
sur	-10.5777
▁komplett	-10.5778
▁Vielen	-10.5783
IA	-10.5786
▁Kor	-10.5786
▁Vo	-10.5787
▁positiv	-10.5797
▁eingehen	-10.5797
▁Once	-10.5802
▁defined	-10.5803
▁Breakfast	-10.5805
▁trägt	-10.5808
▁enormous	-10.5808
▁zufrieden	-10.5808
▁Pass	-10.5808
▁Militär	-10.5811
len	-10.5813
▁easier	-10.5813
▁conclude	-10.5814
▁Brüssel	-10.5815
▁television	-10.5815
▁politics	-10.5819
▁lokalen	-10.582
▁advanced	-10.5821
▁einfache	-10.5823
sprozess	-10.5824
▁Cre	-10.5825
ai	-10.5826
▁Standards	-10.5827
▁Lesung	-10.5827
▁comp	-10.5829
▁Technik	-10.5831
▁hält	-10.5833
tech	-10.5836
pu	-10.5837
▁Standort	-10.5837
▁Indien	-10.5837
System	-10.584
▁relativ	-10.5841
ji	-10.5846
▁participate	-10.5852
▁Dom	-10.5854
▁Berichte	-10.5856
▁promoting	-10.5857
▁ko	-10.5858
▁Systeme	-10.5858
▁difference	-10.5858
▁signed	-10.5861
▁abgeschlossen	-10.5863
▁financing	-10.5864
▁2011	-10.5865
▁ancient	-10.5866
▁Warum	-10.5867
ture	-10.5868
▁Prime	-10.5868
▁adoption	-10.5869
▁hands	-10.5869
reich	-10.5875
▁wenigen	-10.5881
wesen	-10.5883
▁Stellungnahme	-10.5883
▁Verkehr	-10.5885
▁parliamentary	-10.5887
▁Beteiligung	-10.589
▁wants	-10.5891
▁informed	-10.5893
ante	-10.5899
eller	-10.59
▁erscheint	-10.59
mmer	-10.5901
bahn	-10.5902
▁Buchung	-10.5902
my	-10.5905
gesetz	-10.5907
▁developments	-10.5908
▁Arab	-10.5909
▁seriously	-10.5912
▁taste	-10.5912
ht	-10.5918
▁cu	-10.5921
unk	-10.5922
▁Tagung	-10.5926
▁Are	-10.5927
▁Untersuchung	-10.5932
▁Mindest	-10.5935
▁Texte	-10.5938
gu	-10.5939
▁Verpflichtung	-10.594
▁Sehenswürdigkei	-10.594
▁Kingdom	-10.594
▁anyone	-10.5941
▁persönliche	-10.5945
▁dennoch	-10.5946
▁sinnvoll	-10.5946
▁übertragen	-10.5949
gy	-10.5958
dor	-10.5961
▁experienced	-10.5961
▁Klicken	-10.5963
▁Einhaltung	-10.5966
▁Ti	-10.5967
▁möglichst	-10.5968
▁Prinzip	-10.5973
")	-10.5973
▁Day	-10.5974
▁obtain	-10.5975
▁konzentrieren	-10.5976
vin	-10.5978
▁Kirche	-10.5978
▁concrete	-10.5979
▁dangerous	-10.5983
how	-10.5984
▁laut	-10.5986
▁verfolgen	-10.5986
▁article	-10.5987
▁vision	-10.5988
▁Over	-10.5993
ME	-10.5993
▁Wind	-10.5994
▁Achtung	-10.5997
▁mark	-10.5997
▁practices	-10.6004
▁meetings	-10.6007
ris	-10.6009
▁klicken	-10.601
▁African	-10.6011
▁THE	-10.6011
▁Aspekt	-10.6013
pri	-10.6014
ara	-10.6015
▁England	-10.6015
▁unbe	-10.6017
▁Due	-10.6018
▁promotion	-10.6018
▁exhibition	-10.6019
ious	-10.602
▁door	-10.6021
▁studies	-10.6024
organisation	-10.6024
chi	-10.6024
▁IN	-10.6026
▁associated	-10.6026
▁Kur	-10.6028
▁Forderungen	-10.6028
▁connected	-10.6029
▁Gebieten	-10.6031
king	-10.6033
▁Dennoch	-10.6033
▁erstellen	-10.6035
▁rent	-10.6037
▁anders	-10.6039
vers	-10.6042
▁anderes	-10.6042
▁Nachfolgend	-10.6043
▁contain	-10.6043
▁Hauses	-10.6044
og	-10.6046
ET	-10.605
▁Fo	-10.6053
ments	-10.6055
European	-10.6063
enz	-10.6064
hol	-10.6066
▁Ac	-10.6066
▁Dorf	-10.6071
▁Mini	-10.6076
▁extrem	-10.6078
▁outcome	-10.6081
▁Zwischen	-10.6083
▁aims	-10.6083
▁Private	-10.6084
tte	-10.609
PA	-10.609
▁perform	-10.6092
lor	-10.6096
▁Any	-10.6099
▁Rest	-10.6103
▁nennen	-10.6104
▁sh	-10.6106
▁nachhaltige	-10.6107
▁Sorge	-10.611
▁notice	-10.6111
▁Prioritäten	-10.6112
▁happened	-10.6113
stelle	-10.6117
ständig	-10.6117
▁zusätzlich	-10.6118
wasser	-10.612
▁fordert	-10.612
▁spring	-10.6125
▁humanitarian	-10.6126
▁kostenlos	-10.6127
▁Deutsche	-10.613
▁implementing	-10.6131
▁Support	-10.6135
▁Ser	-10.6137
wo	-10.6137
▁route	-10.6137
▁angeboten	-10.6138
cur	-10.6141
▁Wissenschaft	-10.6142
▁leader	-10.6156
▁guide	-10.6156
▁verlassen	-10.6157
▁carefully	-10.6159
▁Original	-10.6161
▁beaches	-10.6164
▁Aussicht	-10.6168
▁seek	-10.6171
▁diskutieren	-10.6171
▁Unterkunft	-10.6172
▁amerikanischen	-10.6174
tar	-10.6177
▁differences	-10.6177
IC	-10.618
▁Patienten	-10.6181
ill	-10.6182
▁organization	-10.6183
▁scale	-10.6186
▁impossible	-10.6187
▁Ratspräsident	-10.6189
▁immediate	-10.6189
▁ernst	-10.619
▁box	-10.6198
▁Gemeinsamen	-10.6199
▁agencies	-10.6203
▁Front	-10.6204
▁Firstly	-10.6204
▁Market	-10.6205
▁erhält	-10.6205
▁persönlich	-10.6207
Programm	-10.6207
▁Polizei	-10.6208
▁Realität	-10.621
▁spent	-10.6211
arch	-10.6212
oc	-10.6215
▁reducing	-10.6223
eb	-10.6224
▁Check	-10.6226
▁Cha	-10.6227
▁?	-10.6229
▁Stärkung	-10.6231
▁genuine	-10.6232
▁stone	-10.6235
▁Globalisierung	-10.6236
our	-10.6239
eren	-10.624
▁legen	-10.624
▁reasonable	-10.6242
▁zahlen	-10.6242
▁Ideen	-10.6243
▁Justice	-10.6243
▁announced	-10.625
>	-10.625
▁truly	-10.6251
▁improvement	-10.6255
▁Umfang	-10.6256
▁Regional	-10.6256
▁recognition	-10.626
▁Will	-10.6266
kl	-10.6268
▁Irish	-10.6269
rä	-10.6271
ef	-10.6274
▁producers	-10.6275
vel	-10.6277
▁Tourismus	-10.6277
erweise	-10.628
unt	-10.628
▁object	-10.6281
▁structures	-10.6284
▁described	-10.6288
akt	-10.629
05	-10.6291
ologie	-10.6291
igung	-10.6292
▁unit	-10.6292
▁Resort	-10.6294
▁appears	-10.6296
▁hören	-10.6299
▁monitor	-10.6301
▁19.	-10.6304
▁mini	-10.6305
▁Jahrhunderts	-10.6313
▁calling	-10.6313
ellen	-10.6314
▁Strom	-10.6314
fü	-10.6315
▁Trans	-10.6316
▁Control	-10.6319
▁echte	-10.632
▁eng	-10.632
▁Ke	-10.6321
▁watch	-10.6322
▁Mil	-10.6323
▁feststellen	-10.6324
▁Zugriff	-10.6325
ius	-10.6328
▁Gleichzeitig	-10.6329
▁jemand	-10.6329
▁niemand	-10.6331
▁schneller	-10.6334
▁geöffnet	-10.6337
▁schönen	-10.634
▁discrimination	-10.6341
▁Führung	-10.6342
lie	-10.6345
bank	-10.6347
▁generation	-10.6347
west	-10.6349
▁übrigen	-10.6353
▁verursacht	-10.6354
▁shared	-10.6356
shop	-10.6357
▁Michael	-10.6358
▁released	-10.6359
▁background	-10.6359
preise	-10.636
▁Dis	-10.6364
▁Teilnehmer	-10.6366
▁river	-10.6371
▁becomes	-10.6376
▁write	-10.6379
möglichkeiten	-10.638
▁territory	-10.638
OS	-10.6381
▁consultation	-10.6381
Geschäftsordnung	-10.6382
www	-10.6382
▁Vielzahl	-10.6383
▁charged	-10.6388
gabe	-10.6391
▁beteiligt	-10.6394
▁physical	-10.6397
▁Verhalten	-10.6401
fest	-10.6403
▁Gi	-10.6404
▁Sand	-10.6408
▁availability	-10.641
▁statements	-10.6411
▁täglich	-10.6411
▁ahead	-10.6411
98	-10.6413
pan	-10.6413
DA	-10.6414
book	-10.6415
Innen	-10.642
▁überprüfen	-10.642
▁Barroso	-10.6423
▁monetary	-10.6423
▁possibilities	-10.6424
▁models	-10.6424
▁hergestellt	-10.6425
▁stattfinden	-10.6426
▁raise	-10.6427
ants	-10.6427
▁Politiker	-10.6428
nom	-10.6428
ura	-10.6429
rum	-10.6431
▁Zeiten	-10.6433
▁shop	-10.6435
▁conduct	-10.6436
▁satellite	-10.6438
▁denken	-10.6445
▁explain	-10.6445
RI	-10.6448
▁Greek	-10.6449
▁Data	-10.6453
gas	-10.6454
▁1994	-10.6455
▁urban	-10.6457
▁Card	-10.6457
▁membership	-10.6457
▁massive	-10.6457
▁glass	-10.6458
▁Alt	-10.646
▁Rome	-10.6462
▁Min	-10.6465
▁court	-10.6465
▁hingewiesen	-10.647
▁ve	-10.6472
erung	-10.6473
Arbeitslosigkeit	-10.6476
▁Landschaft	-10.6478
▁kulturellen	-10.6479
▁wishes	-10.6479
▁•	-10.6482
▁Stück	-10.6483
▁em	-10.6486
▁consumption	-10.6486
bt	-10.6487
▁Foundation	-10.6488
▁é	-10.6489
▁relaxing	-10.649
ade	-10.6493
▁surrounding	-10.6494
▁unacceptable	-10.6495
▁nearby	-10.6497
ika	-10.6501
▁erforderlichen	-10.6503
▁dritten	-10.6504
▁Bedarf	-10.6508
▁print	-10.6508
▁Che	-10.651
▁Rot	-10.651
voll	-10.6516
▁Poker	-10.6516
▁Liebe	-10.6517
ala	-10.6519
▁starke	-10.6524
▁Sehr	-10.6524
▁begann	-10.6525
rück	-10.6526
▁einiger	-10.6528
well	-10.6531
▁confirm	-10.6531
▁continued	-10.6532
▁alter	-10.6532
▁sale	-10.6538
▁Städte	-10.654
▁miteinander	-10.6542
ev	-10.6543
▁houses	-10.6544
▁weight	-10.6544
▁trading	-10.6545
▁son	-10.6545
▁diskutiert	-10.6554
karte	-10.6554
▁blue	-10.6557
ili	-10.656
geschäft	-10.6561
▁mission	-10.6561
▁Budget	-10.6565
hold	-10.6566
anlagen	-10.6566
▁Tro	-10.6566
▁counter	-10.6567
äng	-10.6572
▁Flexibilität	-10.6573
▁skills	-10.6574
▁combined	-10.6576
▁hit	-10.6579
▁greatest	-10.658
Sterne	-10.6584
06	-10.659
18	-10.6592
▁profitieren	-10.6595
▁symbol	-10.6596
tritt	-10.6598
▁register	-10.6598
▁Other	-10.6599
▁insurance	-10.6599
▁spread	-10.66
▁Bedürfnisse	-10.6602
▁buffet	-10.6603
▁einsetzen	-10.6605
▁gegenwärtig	-10.6606
▁Maschinen	-10.6607
▁Radio	-10.6607
▁Beach	-10.6612
▁Willen	-10.6616
pol	-10.6623
▁Arten	-10.6628
▁pictures	-10.663
▁Shi	-10.6633
▁strongly	-10.6633
▁Global	-10.6635
▁Report	-10.6635
▁attitude	-10.6636
▁Democrats	-10.6637
▁schöne	-10.6639
▁band	-10.6639
▁Anwendungen	-10.664
▁Inn	-10.6641
▁Priorität	-10.6644
▁unfortunately	-10.6644
07	-10.6646
▁Pen	-10.6647
▁sämtliche	-10.6649
▁hall	-10.665
▁completed	-10.6653
schw	-10.6655
▁unless	-10.6656
▁formal	-10.6658
▁Maria	-10.6658
▁window	-10.6658
cre	-10.6661
▁gewinnen	-10.6665
%	-10.6666
▁ce	-10.6667
dienst	-10.6667
▁figures	-10.6668
▁guarantees	-10.6668
▁entitled	-10.6669
ect	-10.667
▁gewisse	-10.6671
roll	-10.6676
▁allowing	-10.6676
▁fl	-10.6678
▁pour	-10.6679
▁Tra	-10.669
nu	-10.6691
▁Bewegung	-10.6692
az	-10.6694
anlage	-10.6695
▁Niveau	-10.6697
▁beauty	-10.6698
▁Schl	-10.67
ktion	-10.6701
▁dient	-10.6701
▁host	-10.6703
gre	-10.6704
▁born	-10.6705
straße	-10.6709
▁informiert	-10.6713
▁religious	-10.6721
▁Fahr	-10.6721
▁Altstadt	-10.6721
▁Turkish	-10.6724
lü	-10.6735
▁net	-10.6735
▁devices	-10.6736
▁union	-10.6742
▁economies	-10.6745
grad	-10.6747
▁institution	-10.6747
▁registered	-10.6748
▁Innen	-10.6749
avi	-10.675
▁burden	-10.6751
▁shape	-10.6753
istische	-10.6753
ona	-10.6755
▁attractions	-10.6755
AC	-10.6759
▁rapid	-10.676
▁perspective	-10.676
quality	-10.676
▁Latin	-10.6761
▁beinhaltet	-10.6761
bad	-10.6762
▁danach	-10.6763
lose	-10.6763
▁beginnt	-10.6765
▁count	-10.6768
▁Größe	-10.6769
▁geschehen	-10.6769
▁betont	-10.6769
▁ship	-10.6774
▁betroffen	-10.6776
▁überall	-10.6777
▁bildet	-10.6777
link	-10.6778
▁meters	-10.6778
▁Anlagen	-10.6778
▁recognise	-10.6783
▁unterstütze	-10.6785
▁Jeder	-10.6787
▁richtigen	-10.6796
▁Vorteil	-10.6799
▁railway	-10.68
▁24-	-10.6801
▁Elemente	-10.6801
▁Vienna	-10.6804
▁copy	-10.6808
▁Diskriminierung	-10.6811
▁cards	-10.6814
bedingungen	-10.6817
▁tasks	-10.6818
▁reservation	-10.6819
▁dedicated	-10.682
▁Pra	-10.6822
▁Austrian	-10.6828
▁entstanden	-10.6829
▁Angesichts	-10.683
▁besitzt	-10.683
▁optimal	-10.6834
IP	-10.6836
▁golf	-10.6839
▁Tisch	-10.6843
▁Koordinierung	-10.6845
▁vorliegenden	-10.6848
▁minute	-10.6849
▁closer	-10.685
▁Institute	-10.6855
▁fit	-10.6855
sabkommen	-10.6857
nte	-10.6859
ille	-10.6859
▁asylum	-10.6861
▁flat	-10.6861
▁weiterer	-10.6861
▁beschäftigt	-10.6864
▁Jugend	-10.6865
▁Studio	-10.6867
▁Justiz	-10.6868
▁prefer	-10.6872
▁keinerlei	-10.6874
▁Maße	-10.6875
▁prove	-10.6876
sam	-10.6881
č	-10.6881
▁session	-10.6883
▁Infrastruktur	-10.6886
▁Links	-10.689
▁White	-10.689
▁mar	-10.6894
▁Überprüfung	-10.6896
don	-10.6898
zig	-10.6901
kan	-10.6902
ären	-10.6902
▁nötig	-10.6904
▁SA	-10.6905
dienste	-10.6907
▁ro	-10.6909
wide	-10.6909
▁gain	-10.691
▁highlight	-10.6916
▁device	-10.6917
▁bedeuten	-10.6919
▁delegation	-10.6924
▁expenditure	-10.6925
ati	-10.6928
▁names	-10.6929
▁motor	-10.6929
▁platform	-10.6931
▁advertising	-10.6935
dic	-10.6936
▁PDF	-10.6937
▁französischen	-10.6937
▁radio	-10.6938
▁Kurs	-10.6939
▁meaning	-10.6939
▁protest	-10.694
▁gestalten	-10.6941
▁allgemeine	-10.6942
▁vollkommen	-10.6942
▁Hinweis	-10.6946
▁Tod	-10.6957
Me	-10.6959
ld	-10.6959
▁advice	-10.6964
▁USB	-10.6965
ett	-10.6967
▁rail	-10.6974
▁kept	-10.6976
▁totally	-10.6977
OL	-10.6979
▁interessiert	-10.6981
▁MP	-10.6981
▁reliable	-10.6982
▁storage	-10.6984
▁unto	-10.6984
▁Manager	-10.6985
vert	-10.6986
▁Very	-10.6988
wirtschaftlichen	-10.6988
▁Fenster	-10.6989
▁Federal	-10.6992
zy	-10.6992
▁Verständnis	-10.6992
▁forced	-10.6994
ack	-10.6996
▁politischer	-10.6998
▁regionalen	-10.6998
▁Ereignisse	-10.6999
ification	-10.6999
▁installed	-10.6999
▁Treffen	-10.7002
▁positions	-10.7002
▁Übersetzung	-10.7004
▁disease	-10.7004
▁numbers	-10.7007
▁Meiner	-10.7009
▁slow	-10.7011
▁Einwanderung	-10.7014
name	-10.7016
▁defend	-10.7019
▁story	-10.7019
▁empfehlen	-10.702
▁11.	-10.7024
EG	-10.7026
CE	-10.7027
▁landscape	-10.7027
▁eröffnet	-10.7028
▁Foreign	-10.703
▁packages	-10.7031
qualität	-10.7033
▁Delegation	-10.7034
▁Kopf	-10.7035
▁establishing	-10.7035
▁sum	-10.7036
▁granted	-10.7036
▁enables	-10.7037
▁luxury	-10.7037
din	-10.7038
▁urgent	-10.7039
▁finance	-10.704
▁learning	-10.7041
Er	-10.7041
▁praktisch	-10.7042
▁mid	-10.7045
▁3-	-10.7049
▁demokratische	-10.7049
not	-10.705
ock	-10.705
oni	-10.7053
▁failed	-10.7057
▁compared	-10.7058
▁convinced	-10.7059
▁ergeben	-10.7061
▁Monat	-10.7062
Das	-10.7062
▁Another	-10.7062
▁festgestellt	-10.7064
▁Vorbereitung	-10.7068
tain	-10.7069
▁Nevertheless	-10.707
dorf	-10.7072
▁garantieren	-10.7075
▁extreme	-10.7077
ata	-10.7079
▁core	-10.7083
▁hu	-10.7083
fach	-10.7092
▁Anlage	-10.7093
rechte	-10.7094
▁größeren	-10.7094
▁secret	-10.7096
app	-10.7104
▁memory	-10.7105
▁biggest	-10.7105
duc	-10.7108
▁saw	-10.7111
▁extended	-10.7112
▁Bundes	-10.7112
▁claims	-10.7114
▁dir	-10.7116
▁Au	-10.7116
netz	-10.7117
-01	-10.7122
▁spending	-10.7125
liste	-10.7125
▁micro	-10.7125
▁Liberalisierung	-10.7127
▁Farb	-10.7129
ball	-10.7129
▁Rom	-10.7129
▁Los	-10.713
▁Ordnung	-10.713
▁grow	-10.7136
▁volume	-10.7139
gl	-10.7142
san	-10.7144
“.	-10.7145
lock	-10.7145
▁Tages	-10.7146
▁hauptsächlich	-10.7147
▁Company	-10.7148
▁Note	-10.715
▁corporate	-10.7152
▁Alter	-10.7152
▁Wieder	-10.7157
▁Regelungen	-10.7159
▁feed	-10.7163
▁Netherlands	-10.7163
▁passed	-10.7167
staat	-10.7168
▁Eindruck	-10.717
▁Hi	-10.7174
▁church	-10.7175
▁gegenwärtigen	-10.7178
▁Gebiete	-10.7178
▁solcher	-10.718
04	-10.718
▁Zusammen	-10.7182
▁quick	-10.7184
▁Gründe	-10.7186
ans	-10.7186
▁21.	-10.7186
▁opt	-10.7188
su	-10.7188
ology	-10.7189
arm	-10.7197
▁warten	-10.7197
▁zuvor	-10.7198
rie	-10.7201
▁update	-10.7205
▁candidate	-10.721
▁Generation	-10.7211
▁grundsätzlich	-10.7215
▁moving	-10.7221
▁Gebrauch	-10.7222
▁lake	-10.7224
▁Karten	-10.7224
▁contrary	-10.7224
ique	-10.7225
uß	-10.7227
▁unable	-10.7231
▁Feld	-10.7231
▁RE	-10.7234
01	-10.7234
ng	-10.7234
▁Worten	-10.7234
▁Erde	-10.7237
LE	-10.7238
fallen	-10.724
▁Bu	-10.7241
▁entsprechen	-10.7242
▁Zustand	-10.7244
▁wait	-10.7245
▁Auftrag	-10.7247
▁rasch	-10.7247
▁strength	-10.7255
öl	-10.7256
▁meist	-10.7256
▁tried	-10.726
▁Institution	-10.7261
▁Weitere	-10.7272
▁continues	-10.7273
▁Märkte	-10.7274
▁Eastern	-10.7275
▁deutsche	-10.7276
▁Meeres	-10.7279
▁Special	-10.7281
▁wichtigste	-10.7286
▁Black	-10.7288
version	-10.7289
▁holidays	-10.7291
▁maintenance	-10.7292
▁weapons	-10.7294
setzen	-10.7294
▁Fischer	-10.7296
▁tut	-10.7296
▁akzeptiert	-10.73
▁cars	-10.7301
▁PPE	-10.7301
▁laid	-10.7302
▁sensitive	-10.7303
gruppe	-10.7304
ida	-10.7307
▁perfectly	-10.7309
▁verabschiedet	-10.731
▁Palace	-10.7311
rk	-10.7313
▁Grad	-10.7316
▁Aktion	-10.7317
▁Stadtzentrum	-10.7318
▁Constitution	-10.732
▁ideale	-10.7321
▁freie	-10.7324
45	-10.7325
▁Theater	-10.7331
▁Problemen	-10.7331
▁verbundenen	-10.7338
lung	-10.734
uf	-10.734
▁pleasure	-10.7343
▁Studien	-10.7344
▁chosen	-10.7345
AM	-10.7346
▁Pool	-10.7347
▁Ausstellung	-10.7347
br	-10.7348
▁Entwicklungen	-10.7349
▁flight	-10.7349
▁Good	-10.7354
▁Kal	-10.7355
halten	-10.7356
▁tri	-10.7357
▁drawn	-10.7361
inter	-10.7366
kel	-10.7366
â	-10.7368
▁store	-10.7369
leg	-10.737
▁Obama	-10.7372
lit	-10.7372
▁Format	-10.7374
▁conclusions	-10.7376
▁neither	-10.7377
▁Book	-10.7378
cc	-10.738
▁las	-10.738
н	-10.7383
länder	-10.7387
▁Under	-10.7389
▁adapt	-10.7389
▁factors	-10.7389
▁affect	-10.7389
▁Non	-10.739
sätze	-10.739
▁Wellness	-10.739
▁Wald	-10.7392
spar	-10.7394
▁wesentlichen	-10.7394
▁Cal	-10.7396
▁Verbrechen	-10.7397
▁election	-10.74
▁colleague	-10.7401
с	-10.7402
qua	-10.7404
tätigkeit	-10.7408
▁agency	-10.7412
▁Agrar	-10.7415
▁Robert	-10.7416
tik	-10.7417
ration	-10.7417
▁honourable	-10.7418
▁Unabhängigkeit	-10.7418
▁regelmäßig	-10.7418
bach	-10.742
▁fiscal	-10.742
▁Sprach	-10.742
▁artists	-10.7421
ified	-10.7421
▁liebe	-10.7423
▁Gegensatz	-10.7424
load	-10.7424
▁Phase	-10.7426
bringen	-10.7427
▁remove	-10.7428
▁betrachten	-10.7428
▁sold	-10.7432
▁fuel	-10.7432
▁hervorragende	-10.7436
tern	-10.7439
▁Yet	-10.7439
▁vehicle	-10.7441
▁Tal	-10.7441
▁delay	-10.7441
ú	-10.7442
▁Where	-10.7442
wing	-10.7444
▁engine	-10.745
put	-10.745
▁vorher	-10.745
▁sta	-10.7454
▁extension	-10.7454
ama	-10.7455
▁achieving	-10.7456
▁Ausnahme	-10.7456
▁internationaler	-10.7461
▁Reaktion	-10.7469
▁Kamera	-10.7472
▁Mor	-10.7473
▁Verwaltungs	-10.7477
▁evaluation	-10.7477
▁gr	-10.7477
▁Erklärungen	-10.7478
▁Thus	-10.748
bre	-10.748
lon	-10.7484
▁ambitious	-10.7487
vention	-10.7488
wahl	-10.7492
▁regret	-10.7494
▁Klimaanlage	-10.7495
▁Definition	-10.7496
26	-10.7496
▁rightly	-10.7497
▁Ger	-10.7498
▁outstanding	-10.7499
▁courses	-10.7501
▁Mus	-10.7502
▁Zi	-10.7502
()	-10.7502
▁jegliche	-10.7507
▁solve	-10.7509
▁9.	-10.7511
▁ECU	-10.7514
▁visa	-10.7515
▁Gedanken	-10.7517
▁Gegen	-10.7518
angebot	-10.7518
▁Main	-10.752
▁mountains	-10.7521
eil	-10.7522
▁Show	-10.7523
▁erfordert	-10.7526
▁obviously	-10.7528
▁Englisch	-10.7529
▁dimension	-10.7529
▁gelungen	-10.7534
ves	-10.7537
▁abuse	-10.7538
▁Betriebs	-10.7538
▁club	-10.7544
▁constantly	-10.7547
▁Mir	-10.7549
▁River	-10.7549
▁stands	-10.7551
▁Angriff	-10.7555
▁someone	-10.7555
▁parallel	-10.7557
▁length	-10.7559
tung	-10.7561
laufen	-10.7562
▁Marketing	-10.7563
▁Player	-10.7564
une	-10.7564
▁organised	-10.7567
stoff	-10.757
NA	-10.757
führen	-10.7573
▁aircraft	-10.7573
▁Fotos	-10.758
▁urge	-10.758
▁daraus	-10.7582
▁obligations	-10.7582
▁Royal	-10.7588
▁cheap	-10.7588
▁Aktionen	-10.7589
▁einzigartige	-10.7591
▁früher	-10.7594
▁continuing	-10.7597
°	-10.7599
▁surrounded	-10.7603
▁Bahnhof	-10.7606
▁emphasise	-10.7607
▁yesterday	-10.7607
▁Lord	-10.7609
▁beachten	-10.7609
▁Haut	-10.761
▁definiert	-10.7611
itz	-10.7614
smöglichkeiten	-10.7615
▁elected	-10.7621
▁Formular	-10.7622
▁custom	-10.7623
sbereich	-10.7623
▁Old	-10.7623
▁britischen	-10.7624
▁chain	-10.7624
▁Verteidigung	-10.7628
zeiten	-10.7631
▁speziellen	-10.7635
ora	-10.7637
ía	-10.7638
▁Marken	-10.7639
▁individuals	-10.7639
▁Zahlen	-10.764
gli	-10.7641
sbedingungen	-10.7644
▁#	-10.7644
▁lift	-10.7644
▁eight	-10.7645
▁Papier	-10.7645
▁equality	-10.7645
▁junge	-10.7645
▁EC	-10.7646
▁Agentur	-10.7646
▁Mark	-10.7648
▁globale	-10.7649
▁accessible	-10.7653
gruppen	-10.7653
▁invite	-10.7653
einander	-10.7656
▁Pla	-10.7656
▁Nachdem	-10.7657
▁sides	-10.7658
tet	-10.7661
▁Agency	-10.7661
▁j	-10.7661
mut	-10.7664
führer	-10.7665
▁registration	-10.7666
▁Fri	-10.7673
gh	-10.7674
▁factor	-10.7675
▁acc	-10.7675
▁Westen	-10.7675
▁arm	-10.7676
tas	-10.7678
▁Planung	-10.7679
▁wealth	-10.768
);	-10.7681
▁Summit	-10.7681
▁successfully	-10.7684
95	-10.7684
▁Gesetze	-10.7685
▁Völker	-10.7686
▁metal	-10.7687
▁Voll	-10.7689
▁Palestinian	-10.7691
▁multiple	-10.7692
IL	-10.7693
rei	-10.7694
uff	-10.7694
ID	-10.7694
▁browser	-10.7695
▁DE	-10.7696
▁intention	-10.7698
▁Ausland	-10.7698
▁Set	-10.7699
▁Burg	-10.77
▁Typ	-10.77
▁Glas	-10.7701
▁Win	-10.7703
▁blood	-10.7705
▁Garden	-10.7705
▁versch	-10.7709
▁repeat	-10.7709
wechsel	-10.771
▁commitments	-10.7712
▁Architektur	-10.7713
nummer	-10.7714
▁wonder	-10.7719
▁Farben	-10.772
▁Grundrechte	-10.7721
▁ti	-10.7721
chten	-10.7721
▁kürzlich	-10.7722
▁comply	-10.7728
▁category	-10.7729
▁alt	-10.773
▁reject	-10.7732
▁Kombination	-10.7732
ani	-10.7733
▁Datenschutz	-10.7733
▁Empfehlungen	-10.7735
wald	-10.7737
km	-10.7738
5%	-10.7738
▁facilitate	-10.7743
sprogramm	-10.7744
PC	-10.7745
▁8.	-10.7745
▁Laufe	-10.7747
▁Nor	-10.7749
▁langen	-10.7751
▁prepare	-10.7753
▁Erhöhung	-10.7754
bro	-10.7755
▁emphasis	-10.7755
ost	-10.7757
▁criticism	-10.7757
▁asking	-10.7758
▁Use	-10.7759
▁Süden	-10.7759
▁insist	-10.7762
▁III	-10.7763
▁rechts	-10.7767
▁au	-10.7771
▁uses	-10.7779
▁sorgfältig	-10.7781
▁independence	-10.7782
▁species	-10.7783
▁einverstanden	-10.7788
▁gu	-10.779
▁mechanism	-10.7795
▁Ferien	-10.7796
▁Sil	-10.7802
▁Island	-10.7803
▁historische	-10.7805
▁höhere	-10.7807
▁Beihilfen	-10.7807
▁mail	-10.7807
▁Maß	-10.781
▁Experten	-10.7811
▁sage	-10.7814
tter	-10.7814
▁Square	-10.7814
”,	-10.7815
▁Located	-10.7816
▁license	-10.7818
▁Environment	-10.782
▁switch	-10.7822
64	-10.7822
▁est	-10.7823
nnen	-10.7825
▁manchmal	-10.7825
FI	-10.7826
▁gehalten	-10.7827
▁limits	-10.783
▁gutes	-10.7831
и	-10.7834
rc	-10.7835
▁geschieht	-10.7836
▁Bed	-10.7837
▁ausgezeichnete	-10.7839
▁zugänglich	-10.7841
▁mon	-10.7841
stellt	-10.7842
▁balanced	-10.7843
baren	-10.7844
▁merely	-10.7844
cha	-10.7846
▁treten	-10.785
▁Reich	-10.785
phy	-10.7851
igt	-10.7851
▁Beim	-10.7853
▁furnished	-10.7854
▁),	-10.7855
▁Ton	-10.7857
grund	-10.7857
▁außerordentlich	-10.7861
▁determine	-10.7865
▁Amerika	-10.7865
▁skin	-10.7866
▁changing	-10.7866
▁Voraussetzungen	-10.7867
▁Jean	-10.7867
sort	-10.787
systems	-10.7874
▁flow	-10.7874
▁Digital	-10.7874
▁recommendations	-10.7875
▁obvious	-10.7876
▁Kra	-10.7878
▁stimmt	-10.7883
elt	-10.7884
NL	-10.7884
▁communities	-10.7885
▁kaufen	-10.7886
LA	-10.7886
yl	-10.7886
▁journey	-10.7886
▁Kontinent	-10.7888
▁Arbeitsmarkt	-10.7888
▁Teilnahme	-10.7889
▁disposal	-10.7889
▁Risiken	-10.789
Al	-10.7891
▁Gegenteil	-10.7894
▁approximately	-10.7894
▁contained	-10.7894
▁Männer	-10.7896
▁contemporary	-10.7897
▁Its	-10.7897
▁Both	-10.7898
▁unternommen	-10.7899
bei	-10.7899
té	-10.7899
ulation	-10.7901
▁waiting	-10.7901
▁operate	-10.7906
▁spricht	-10.791
point	-10.7911
▁consists	-10.7914
▁une	-10.7914
▁payments	-10.7915
▁zählen	-10.7917
fahren	-10.7918
llen	-10.7919
▁sobald	-10.7919
▁jungen	-10.7921
▁jüngsten	-10.7923
eten	-10.7923
▁goals	-10.7924
▁Korea	-10.7924
▁putting	-10.7925
▁Mitteln	-10.7925
▁Audio	-10.7926
fällig	-10.7929
▁lose	-10.793
▁colour	-10.793
▁define	-10.793
▁einzelne	-10.7931
▁mittels	-10.7932
▁dritte	-10.7933
CC	-10.7933
▁prevention	-10.7934
▁Time	-10.7934
▁perfekt	-10.7936
vol	-10.7941
▁Abschnitt	-10.7942
▁1992	-10.7948
▁Freunde	-10.7954
▁installiert	-10.7954
▁Master	-10.7954
▁zunehmend	-10.7955
▁fi	-10.7957
tim	-10.7957
▁deposit	-10.7959
▁participants	-10.7959
LO	-10.7959
▁großes	-10.7962
▁log	-10.7962
CO	-10.7964
▁gewählt	-10.7965
räume	-10.7966
das	-10.7966
▁übernommen	-10.7966
▁Monte	-10.797
▁Grunde	-10.7971
mäßig	-10.7971
▁wild	-10.7971
▁Hauptstadt	-10.7978
▁cor	-10.7984
▁planned	-10.7987
▁Minderheiten	-10.7991
▁Erholung	-10.7991
▁steel	-10.7993
weisen	-10.7994
▁Alliance	-10.7995
test	-10.7997
▁universal	-10.7997
material	-10.7998
gründe	-10.8001
▁guter	-10.8004
▁letter	-10.8006
▁Essen	-10.8007
▁Drogen	-10.8008
▁einzigen	-10.8008
▁Presse	-10.8011
23	-10.8013
▁proceed	-10.8015
▁Fraktionen	-10.8015
▁Gegend	-10.8015
▁damals	-10.8015
▁bringing	-10.8016
nden	-10.802
▁Part	-10.802
▁selten	-10.8021
27	-10.8022
▁fort	-10.8024
▁Beweis	-10.8025
▁representative	-10.8026
▁Those	-10.8027
▁bewegen	-10.8029
post	-10.8033
а	-10.8033
▁strict	-10.8035
▁Gran	-10.8038
▁moral	-10.8038
ctor	-10.8039
▁controls	-10.804
falls	-10.8042
trag	-10.8042
▁Enjoy	-10.8043
lang	-10.8044
▁technological	-10.8044
▁Vom	-10.8046
wand	-10.8047
▁app	-10.8049
▁Pflicht	-10.8049
▁Touristen	-10.8053
▁Hälfte	-10.8055
▁sonst	-10.8056
▁vorgeschlagenen	-10.8057
▁guaranteed	-10.8059
▁association	-10.8059
32	-10.8063
sicht	-10.8063
responsibilities	-10.8064
▁sc	-10.8066
▁Herz	-10.8068
▁Mel	-10.8072
▁lu	-10.8073
▁substantial	-10.8078
▁zone	-10.8079
▁anbieten	-10.8081
▁Nahrungsmittel	-10.8085
▁teilen	-10.8086
▁capable	-10.8086
rö	-10.8089
▁gestaltet	-10.809
▁abhängig	-10.8091
▁noise	-10.8094
▁Direkt	-10.8095
▁seeking	-10.8096
▁photos	-10.8098
▁battle	-10.81
▁Speicher	-10.8101
▁strengthening	-10.8102
dig	-10.8102
▁Überzeugung	-10.8103
▁nu	-10.8105
mission	-10.8106
schein	-10.8108
isse	-10.8108
▁acceptable	-10.8112
▁reichen	-10.8112
haft	-10.8113
▁Wettbewerbs	-10.8114
sport	-10.8114
▁drawing	-10.8114
▁präsentiert	-10.8118
▁Austausch	-10.8119
▁wodurch	-10.8119
▁resulting	-10.8121
▁solid	-10.8121
int	-10.8121
▁andererseits	-10.8122
▁Zentral	-10.8123
▁convenient	-10.8124
▁wesentliche	-10.8124
genommen	-10.8127
▁pointed	-10.813
▁targets	-10.8131
▁zugleich	-10.8137
amt	-10.8138
ford	-10.8142
kultur	-10.8142
rin	-10.8143
▁Express	-10.8143
▁arise	-10.8144
ras	-10.8146
▁dinner	-10.8148
▁eye	-10.815
Ka	-10.815
▁Zug	-10.8151
▁Muslim	-10.8153
▁sieben	-10.8155
▁Sound	-10.8159
organisationen	-10.8159
▁Charter	-10.8165
ré	-10.8167
▁Rules	-10.8168
▁Sweden	-10.817
▁ID	-10.817
▁Revolution	-10.8171
▁smaller	-10.8172
▁sell	-10.8174
ls	-10.8174
tsch	-10.8174
▁manufacturing	-10.8175
steuer	-10.8176
▁Energy	-10.8177
▁Element	-10.8177
▁Signal	-10.8178
smaßnahmen	-10.8179
▁vorschlagen	-10.8186
▁quarter	-10.8186
▁betroffenen	-10.8187
▁Religion	-10.8188
▁basiert	-10.819
▁Apartment	-10.819
greifen	-10.8193
ION	-10.8193
MS	-10.8195
tä	-10.8196
▁Chamber	-10.8196
rist	-10.8197
▁48	-10.8198
▁blog	-10.8199
▁ch	-10.8201
nehmen	-10.8201
▁Col	-10.8203
▁Drei	-10.8203
▁Mitgliedern	-10.8204
▁identity	-10.8205
▁Inc	-10.8206
ori	-10.821
LT	-10.821
▁Sonnen	-10.8213
▁Effizienz	-10.8214
▁recovery	-10.8216
▁JavaScript	-10.8216
bal	-10.8221
haltung	-10.8222
Se	-10.8228
▁Pri	-10.8229
CD	-10.823
▁Zentralbank	-10.8231
versorgung	-10.8233
▁Morgen	-10.8234
▁Mutter	-10.8235
▁collective	-10.8236
▁nearly	-10.8239
▁worse	-10.8242
▁voraus	-10.8243
▁explore	-10.8244
▁Unterschied	-10.8247
cul	-10.8248
oo	-10.825
row	-10.8253
▁Mode	-10.8253
å	-10.8256
▁audio	-10.8261
▁Blog	-10.8263
▁acts	-10.8263
▁nationaler	-10.8265
gri	-10.8268
rant	-10.8268
▁King	-10.8272
▁Pension	-10.8273
▁Ebenso	-10.8274
▁sp	-10.8276
▁adequate	-10.8277
kra	-10.8278
▁organ	-10.828
▁mix	-10.8281
▁Bal	-10.8282
▁höchsten	-10.8284
▁Sam	-10.829
af	-10.8291
▁Immobilien	-10.8291
▁Freude	-10.8292
▁governance	-10.8295
▁Fax	-10.8296
bl	-10.8297
▁password	-10.8297
▁ste	-10.8297
mel	-10.8299
▁grounds	-10.83
▁reflect	-10.8301
▁diverse	-10.8302
▁verstärkt	-10.8303
▁König	-10.8307
einrichtungen	-10.831
▁consensus	-10.831
▁ones	-10.831
PS	-10.831
▁Friedens	-10.8313
▁occasion	-10.8314
Lo	-10.8317
▁NI	-10.832
▁Verhältnis	-10.8321
▁School	-10.8323
▁Ur	-10.8323
ente	-10.8325
▁Symbol	-10.8327
▁southern	-10.8329
▁Take	-10.8334
▁fällt	-10.8335
▁import	-10.8336
LI	-10.8338
▁Act	-10.8339
▁impression	-10.834
▁forest	-10.8342
▁truth	-10.8347
▁traditionellen	-10.8353
▁sensible	-10.8355
down	-10.8356
▁Tiere	-10.8357
75	-10.8358
▁decades	-10.8359
200	-10.836
▁Romania	-10.8362
top	-10.8364
border	-10.8369
▁weg	-10.8369
▁driving	-10.837
▁mother	-10.8371
▁siehe	-10.8372
▁Dutch	-10.8373
reif	-10.8373
▁Angebote	-10.8374
anz	-10.8376
▁thereby	-10.8377
▁requested	-10.8377
▁books	-10.8378
▁contents	-10.8378
▁Eltern	-10.838
Ab	-10.8381
▁Schwerpunkt	-10.8382
▁sand	-10.8383
▁liability	-10.8386
Con	-10.8387
ordnung	-10.8389
▁Gewicht	-10.8389
▁erscheinen	-10.8399
▁erhältlich	-10.8399
▁testing	-10.8399
▁launch	-10.84
▁discussing	-10.8403
▁Mittelmeer	-10.8404
▁album	-10.8406
▁möglichen	-10.8406
▁expensive	-10.8406
▁primarily	-10.8406
▁primary	-10.8406
▁Methode	-10.8407
ct	-10.8407
▁Two	-10.8408
wend	-10.8408
gut	-10.8409
▁Grenz	-10.8412
▁Trotz	-10.8412
▁seitens	-10.8414
ney	-10.8415
▁Str	-10.8415
anten	-10.8421
▁abgestimmt	-10.8421
▁Unterschiede	-10.8422
▁patients	-10.8424
28	-10.8425
▁grenzüberschrei	-10.8425
▁roll	-10.8426
▁addressed	-10.8427
eo	-10.8427
hlen	-10.8428
▁industries	-10.8428
▁previously	-10.8428
TS	-10.8428
▁Nice	-10.8429
▁outdoor	-10.8429
kin	-10.8429
▁nation	-10.8435
lö	-10.8437
▁Jan	-10.844
▁Prodi	-10.8443
▁100%	-10.8445
▁interessante	-10.8449
code	-10.8451
Veröffentlichung	-10.8452
▁causes	-10.8453
▁default	-10.8455
▁fertig	-10.8463
get	-10.8466
frage	-10.8466
bri	-10.8468
▁opposite	-10.8469
▁Haftung	-10.8474
▁reicht	-10.8475
▁reagieren	-10.8476
▁settlement	-10.8478
▁{{	-10.848
äch	-10.8481
▁Teilen	-10.8482
ij	-10.8483
Li	-10.8485
▁safeguard	-10.8486
▁teil	-10.8489
▁Get	-10.8491
leih	-10.8493
31	-10.8493
▁auto	-10.8497
▁George	-10.8497
wagen	-10.85
atur	-10.85
uer	-10.8501
▁leads	-10.8502
▁master	-10.8502
To	-10.8504
▁nations	-10.8506
real	-10.8507
▁produziert	-10.8507
▁Aufgrund	-10.8507
▁gefördert	-10.8511
▁Ven	-10.8512
▁Rotary	-10.8512
▁Wahrheit	-10.8513
▁Verbot	-10.8513
▁berechtigt	-10.8518
▁Methoden	-10.8521
▁pu	-10.8523
els	-10.8524
gan	-10.8526
▁Dublin	-10.8526
▁Vater	-10.8529
▁Vision	-10.853
ava	-10.8531
▁Trek	-10.8532
ky	-10.8532
Der	-10.8533
▁Freizeit	-10.8533
}}	-10.8541
Adresse	-10.8542
ruh	-10.8546
▁Straf	-10.8548
til	-10.8549
▁institutionelle	-10.855
▁Veranstaltungen	-10.8553
hor	-10.8556
▁Kind	-10.8558
▁Norden	-10.8559
▁Hans	-10.8559
schl	-10.8561
2-	-10.8561
▁Java	-10.8562
pen	-10.8562
▁Flash	-10.8562
anda	-10.8564
▁Les	-10.8565
▁willkommen	-10.8572
ationen	-10.8572
termin	-10.8574
▁farm	-10.8575
▁Bucht	-10.8575
▁continent	-10.8576
-2	-10.8577
nimmt	-10.8577
▁piece	-10.8584
▁turned	-10.8584
cle	-10.8585
▁attacks	-10.8586
▁rec	-10.8586
IM	-10.8589
gemeinschaft	-10.8591
▁Anliegen	-10.8596
▁Kaffee	-10.8598
▁determined	-10.8598
▁Jede	-10.8599
▁Financial	-10.86
▁Fähigkeit	-10.8606
▁bars	-10.8607
ena	-10.8607
TE	-10.8609
▁grundlegende	-10.8609
▁Gründung	-10.8611
▁Inseln	-10.8612
VE	-10.8613
▁Internationalen	-10.8614
▁kleiner	-10.8614
▁Details	-10.8618
▁sichern	-10.862
▁Sha	-10.8621
▁mutual	-10.8622
500	-10.8623
▁ländlichen	-10.8623
ray	-10.8624
ward	-10.8624
▁Thanks	-10.8624
▁Sc	-10.8625
▁behandeln	-10.8625
▁(2	-10.8626
▁valley	-10.8631
▁soft	-10.8631
▁beschränkt	-10.8632
▁Ya	-10.8633
▁Paper	-10.8635
▁delivered	-10.8635
▁Anbieter	-10.8635
▁Gästen	-10.8635
▁Schloss	-10.8637
▁Klimawandel	-10.8639
▁Ban	-10.8641
2000	-10.8644
▁36	-10.8645
▁cable	-10.8649
▁Gut	-10.8654
ient	-10.8656
schaftliche	-10.8656
▁Schwarz	-10.8661
▁dealt	-10.8663
▁wall	-10.8663
▁>	-10.8664
▁langsam	-10.8666
▁Schweden	-10.8667
▁spot	-10.867
▁angeht	-10.8671
DI	-10.8673
spect	-10.8674
▁feeling	-10.8674
Do	-10.8677
▁David	-10.8677
▁ci	-10.8679
▁residence	-10.8679
▁appreciate	-10.868
▁named	-10.8682
gue	-10.8682
▁reply	-10.8683
▁qui	-10.8684
▁kulturelle	-10.8687
▁renewable	-10.8688
▁sorgt	-10.8689
▁father	-10.869
produkte	-10.869
its	-10.869
▁amongst	-10.8693
rry	-10.8695
▁Spiele	-10.8698
▁Ratsvorsitz	-10.8698
▁interior	-10.8699
ova	-10.8703
▁nochmals	-10.8707
▁diversity	-10.8711
▁begonnen	-10.8716
▁künftig	-10.8717
▁brings	-10.8718
SV	-10.8719
т	-10.872
▁Fälle	-10.872
▁besseren	-10.872
▁Einklang	-10.8725
EU	-10.8727
▁1993	-10.8729
▁Well	-10.873
▁München	-10.8732
▁berühmten	-10.8732
▁Wien	-10.8733
▁president	-10.8733
▁bereitgestellt	-10.8735
▁Verkauf	-10.8736
▁mandate	-10.8736
eln	-10.8737
▁intensive	-10.8738
▁Eis	-10.8739
▁castle	-10.8741
pack	-10.8742
▁Ag	-10.8745
▁Shop	-10.8746
▁Kreis	-10.8749
▁kontextuell	-10.8752
▁Despite	-10.8754
▁Rumänien	-10.8754
right	-10.8755
▁discharge	-10.876
nce	-10.876
▁qualified	-10.8761
urs	-10.8762
▁Stunde	-10.8763
▁cri	-10.8765
▁filter	-10.8766
ech	-10.8767
▁Programms	-10.8769
▁sicherstellen	-10.8769
▁TO	-10.8772
▁vielmehr	-10.8774
▁fo	-10.8777
▁territorial	-10.8779
var	-10.8781
▁division	-10.8782
▁250	-10.8783
bot	-10.8783
▁resolve	-10.8783
lay	-10.8784
▁Mont	-10.8784
ido	-10.8786
▁zustimmen	-10.8787
▁umgeben	-10.8788
DS	-10.8789
▁Umständen	-10.8791
ult	-10.8792
Berücksichtigung	-10.8793
▁Lager	-10.8795
▁Gleichgewicht	-10.8795
▁höchste	-10.8796
site	-10.8796
▁Kilometer	-10.8797
▁talks	-10.8799
SC	-10.8799
punkte	-10.8802
▁Question	-10.8802
▁führenden	-10.8803
▁ru	-10.8804
▁fand	-10.8806
▁verlieren	-10.8807
▁Nachrichten	-10.8808
▁Mein	-10.8809
▁schools	-10.881
schaftlichen	-10.8812
▁binding	-10.8813
ath	-10.8813
kommt	-10.8814
▁constant	-10.8814
▁leadership	-10.8819
▁umfangreiche	-10.8821
▁Ziffer	-10.8821
«	-10.8822
▁Gewinn	-10.8828
▁SE	-10.883
▁Kunde	-10.8834
▁Nachfrage	-10.8836
reichen	-10.8838
cor	-10.884
▁Kontroll	-10.884
kunden	-10.8843
▁Geräte	-10.885
▁breite	-10.885
▁Strukturfonds	-10.8851
▁Tür	-10.8851
▁moved	-10.8853
ico	-10.8854
▁charming	-10.8854
▁existence	-10.8856
у	-10.8858
▁Arm	-10.886
▁situations	-10.8861
▁cl	-10.8863
▁marked	-10.8865
▁competence	-10.8867
▁fill	-10.8871
▁Werbe	-10.8875
▁Akt	-10.888
▁beschrieben	-10.888
▁("	-10.888
▁politisch	-10.8881
als	-10.8884
list	-10.8887
glich	-10.8888
▁Zimmern	-10.8888
▁corner	-10.889
▁Bern	-10.889
▁ehemaligen	-10.8891
with	-10.8892
▁allgemein	-10.8893
uck	-10.8894
▁Mu	-10.8895
▁manufacturers	-10.8896
▁presentation	-10.8896
▁onto	-10.8897
д	-10.8897
iff	-10.8899
▁fix	-10.89
▁Kollege	-10.8901
statt	-10.8901
▁Action	-10.8902
▁Redner	-10.8904
▁Minutes	-10.8904
▁mechanisms	-10.8905
▁Verfügbarkeit	-10.891
▁ergriffen	-10.8912
▁obligation	-10.8915
funktion	-10.8915
▁Doppel	-10.8916
nz	-10.8917
▁rejected	-10.8918
struktur	-10.8922
tive	-10.8922
run	-10.8923
▁1980	-10.8924
▁Bahn	-10.8931
▁approval	-10.8931
▁Bedenken	-10.8934
alität	-10.8935
▁compliance	-10.8937
namen	-10.8941
▁fantastic	-10.8944
▁derzeitigen	-10.8944
▁Grenze	-10.8946
▁vorgenommen	-10.8946
▁Pop	-10.8955
▁bedarf	-10.8956
▁Liefer	-10.8956
▁sozial	-10.8961
▁Schäden	-10.8961
▁Leistungs	-10.8962
▁pan	-10.8965
▁constructive	-10.8965
▁Adresse	-10.8965
mos	-10.8967
▁destination	-10.8968
▁heat	-10.8968
▁Music	-10.8969
dia	-10.897
▁heavy	-10.897
▁Before	-10.897
▁hinzu	-10.8971
▁furniture	-10.8972
▁befassen	-10.8973
lassen	-10.8973
▁Empfehlung	-10.8974
▁Garantie	-10.8976
▁leisure	-10.8976
▁spaces	-10.898
▁significantly	-10.8983
▁erhielt	-10.8984
▁schließen	-10.8985
▁Einstellung	-10.8985
▁Dokumente	-10.8986
▁ju	-10.8987
▁Dadurch	-10.899
▁ziemlich	-10.8992
▁positiven	-10.8994
▁cm	-10.8995
▁wiederum	-10.8996
sländern	-10.8996
uit	-10.9
▁Munich	-10.9002
▁holding	-10.9006
▁Schaden	-10.9007
leistung	-10.9011
▁compensation	-10.9015
▁Fu	-10.9015
▁gross	-10.9015
▁Mur	-10.9022
▁Then	-10.9026
▁expertise	-10.9027
band	-10.9032
tr	-10.9033
▁Kyoto	-10.9037
▁privacy	-10.9039
▁zentral	-10.904
▁genauso	-10.9041
▁recommended	-10.9041
▁launched	-10.9042
tür	-10.9042
ppe	-10.9044
dar	-10.9045
▁Badezimmer	-10.9047
▁versions	-10.905
▁Sun	-10.9051
▁Übernachtung	-10.9053
▁treated	-10.9056
▁consistent	-10.9063
▁Camp	-10.9063
▁felt	-10.9065
▁Voraussetzung	-10.9065
▁helping	-10.9066
▁Sauna	-10.9066
▁profit	-10.9067
Service	-10.907
▁Bel	-10.907
▁Tele	-10.9071
▁Cap	-10.9072
▁Datenbank	-10.9072
▁tu	-10.9074
▁assume	-10.9075
▁führte	-10.9076
frei	-10.9076
▁Handeln	-10.9076
▁verlangt	-10.9077
sky	-10.9078
▁Zoll	-10.9082
▁Bedrohung	-10.9083
▁block	-10.9084
▁läuft	-10.9085
▁drugs	-10.9087
stück	-10.9088
ators	-10.9088
▁betreffen	-10.9089
▁Diskussionen	-10.9092
kreis	-10.9093
▁Lieferung	-10.9097
bett	-10.9101
▁Brand	-10.9102
▁gespeichert	-10.9104
pper	-10.9105
▁expectations	-10.9105
▁20.	-10.9105
▁vast	-10.9107
▁error	-10.9108
▁label	-10.911
▁cold	-10.9111
stell	-10.9113
▁Schlafzimmer	-10.9114
▁seien	-10.9116
▁finde	-10.9118
▁miss	-10.9118
▁800	-10.9122
▁Menü	-10.9123
minister	-10.9123
▁Grundsätze	-10.9125
ties	-10.9125
ula	-10.913
▁Ch	-10.913
▁regionale	-10.9133
▁improvements	-10.9138
▁kinds	-10.914
▁Skype	-10.9141
▁Identität	-10.9142
▁Ed	-10.9143
▁entertainment	-10.9143
▁konkreten	-10.9145
▁unge	-10.9145
von	-10.9149
▁figure	-10.915
▁12.	-10.9151
verwaltung	-10.9153
▁Vielleicht	-10.9153
▁Eigenschaften	-10.9153
ziehen	-10.9153
format	-10.9158
ira	-10.9159
politischen	-10.9159
ffen	-10.916
read	-10.9162
▁lag	-10.9163
▁sanctions	-10.9163
ological	-10.9164
UR	-10.9164
▁Beiträge	-10.9165
▁bedroom	-10.9166
tour	-10.9168
kar	-10.9169
class	-10.917
▁Fahrzeug	-10.9173
legung	-10.9173
▁starken	-10.9176
Sa	-10.9176
▁dishes	-10.9177
▁valuable	-10.9177
bed	-10.9183
▁Men	-10.9185
▁ta	-10.9186
—	-10.9187
▁Ideal	-10.9196
▁Bur	-10.9197
▁speakers	-10.9198
▁director	-10.9201
mun	-10.9202
▁represented	-10.9202
▁Wall	-10.9202
▁Pack	-10.9203
▁Ausstattung	-10.9208
▁apart	-10.921
▁erheblich	-10.9211
▁vo	-10.9214
tlich	-10.9216
▁output	-10.9216
gleich	-10.9217
▁Airbus	-10.9217
▁entlang	-10.9219
ž	-10.9223
▁suit	-10.9229
ruf	-10.9229
]],	-10.9231
▁arms	-10.9231
▁verlangen	-10.9232
low	-10.9233
▁gestern	-10.9235
▁schön	-10.9236
▁Va	-10.9239
▁suffering	-10.924
▁investments	-10.9243
▁fraud	-10.9243
▁contrast	-10.9245
▁applicable	-10.9245
▁bemüht	-10.9245
▁schafft	-10.9245
▁bedrooms	-10.9247
▁Photo	-10.9248
▁Network	-10.9252
air	-10.9253
▁voran	-10.9255
▁Law	-10.9256
▁award	-10.9256
ppen	-10.9256
▁Allgemeinen	-10.9256
zeichen	-10.9256
▁App	-10.9258
▁wiederholt	-10.9259
fu	-10.9263
▁fail	-10.9265
▁Gestaltung	-10.9267
▁proud	-10.9268
▁relatively	-10.9268
▁Wegen	-10.9268
▁reaction	-10.927
gegangen	-10.9271
▁Work	-10.9271
▁Absicht	-10.9271
▁cycle	-10.9273
▁Salzburg	-10.9274
▁fan	-10.9275
▁trial	-10.9282
▁Küste	-10.9284
▁bezieht	-10.9285
▁creative	-10.9289
▁Dauer	-10.9291
▁zählt	-10.9293
▁Dar	-10.9293
▁classic	-10.9293
▁vacation	-10.9294
cer	-10.9295
▁Schulden	-10.9297
wer	-10.9297
96	-10.9298
▁temperature	-10.9298
▁Vermittlung	-10.9299
▁collect	-10.9299
SI	-10.9302
▁Suite	-10.9303
▁belief	-10.9304
▁Eisenbahn	-10.9307
▁Technology	-10.9309
▁Maßnahme	-10.931
chan	-10.9312
2.	-10.9313
▁Hof	-10.9313
▁Leitlinien	-10.9316
▁rental	-10.9317
▁trotzdem	-10.9325
▁streets	-10.9327
▁danger	-10.9328
▁75	-10.9335
▁deiner	-10.9336
flex	-10.9337
▁amerikanische	-10.9337
▁2009.	-10.9337
▁arrive	-10.9337
▁latter	-10.9337
▁lautet	-10.934
tom	-10.9341
lösung	-10.9342
▁Beschluss	-10.9342
▁welchen	-10.9344
▁liefern	-10.9345
ose	-10.9346
Co	-10.9347
▁units	-10.9349
▁menschliche	-10.9353
▁Büro	-10.9355
▁Beratung	-10.9355
▁entered	-10.9356
▁taxes	-10.9358
▁jährlich	-10.9359
▁Antworten	-10.936
▁boat	-10.936
▁sexual	-10.9363
▁sauna	-10.9366
▁disaster	-10.937
▁substances	-10.937
▁keiner	-10.9373
▁copyright	-10.9378
▁hair	-10.9379
treffen	-10.938
▁Sanktionen	-10.938
▁weekend	-10.9382
idad	-10.9384
▁traditionelle	-10.9388
▁career	-10.9388
ates	-10.9388
▁Hinter	-10.9389
tru	-10.9389
▁Client	-10.939
▁whatever	-10.9391
▁intellectual	-10.9391
▁refugees	-10.9391
▁Ref	-10.9392
gna	-10.9393
TI	-10.9397
ific	-10.9398
▁OF	-10.9398
▁keeping	-10.94
▁trees	-10.94
▁Kommunikations	-10.9401
lim	-10.9401
gestellt	-10.9402
rio	-10.9403
team	-10.9404
▁Islam	-10.9405
▁operators	-10.9407
▁gewährt	-10.941
▁hoher	-10.9412
pra	-10.9413
▁festival	-10.9414
▁Bord	-10.9417
▁whilst	-10.9418
▁italienischen	-10.9418
▁View	-10.9421
▁impressive	-10.9424
CS	-10.9426
▁Genehmigung	-10.9426
▁intend	-10.9427
▁affairs	-10.9427
design	-10.943
ped	-10.943
▁wenden	-10.9436
xi	-10.9437
▁Ferner	-10.9438
▁falsch	-10.9438
▁unmittelbar	-10.944
▁Verträge	-10.944
hren	-10.9441
▁older	-10.9441
▁Av	-10.9441
▁engineering	-10.9442
▁lounge	-10.9444
▁erweitert	-10.9444
▁respective	-10.9445
▁museum	-10.9445
▁Regulierung	-10.9445
ric	-10.9446
▁Browser	-10.9446
▁Landwirte	-10.9446
▁od	-10.9447
▁individuelle	-10.9451
▁ni	-10.9457
68	-10.9458
▁Plaza	-10.9461
Ü	-10.9462
▁außergewöhnlich	-10.9462
rang	-10.9463
▁umfassenden	-10.9463
▁geschrieben	-10.9465
▁involving	-10.9466
▁Hü	-10.9472
▁Provinz	-10.9473
▁drop	-10.9477
▁600	-10.9477
▁Studenten	-10.948
▁Schule	-10.9483
▁2010.	-10.9487
▁Life	-10.9492
▁match	-10.9493
▁arrangements	-10.9494
win	-10.9495
▁Net	-10.9497
▁frame	-10.9499
▁description	-10.9502
▁Welcome	-10.9502
▁shift	-10.9502
ase	-10.9505
▁Blut	-10.9514
▁runs	-10.9514
▁Vice	-10.9514
▁bilateral	-10.9519
zone	-10.9519
kontrolle	-10.9519
ram	-10.952
▁Dort	-10.9521
▁finding	-10.9523
rufen	-10.9526
technologie	-10.9526
▁17.	-10.9527
▁politicians	-10.9528
▁Mc	-10.953
ito	-10.953
▁react	-10.9532
ache	-10.9532
▁erzeugt	-10.9534
▁weiteres	-10.9535
rea	-10.9539
▁exclusively	-10.9539
▁Safety	-10.9539
▁personally	-10.954
▁planet	-10.954
▁articles	-10.9541
▁Umweltschutz	-10.9547
▁objects	-10.9551
▁teilnehmen	-10.9555
▁Wohnung	-10.9556
▁Strategy	-10.9558
▁helped	-10.9558
▁exists	-10.9559
▁organisiert	-10.956
▁Sta	-10.9562
▁Asien	-10.9563
▁script	-10.9564
▁naturally	-10.9569
nie	-10.9572
▁leiden	-10.9573
▁Spar	-10.9574
▁boot	-10.9574
zz	-10.9576
▁beträgt	-10.9577
▁Mail	-10.9577
rit	-10.9578
▁ausgerichtet	-10.9581
▁entdecken	-10.9584
▁gebaut	-10.9587
▁französische	-10.9591
▁recognised	-10.9596
▁2.0	-10.9596
▁13.	-10.96
án	-10.9604
▁requests	-10.9604
▁Volks	-10.961
▁examples	-10.9615
stru	-10.9617
sehen	-10.9617
schicht	-10.9618
▁Schul	-10.9624
▁1000	-10.9624
▁volle	-10.9626
CH	-10.9629
▁Kredit	-10.963
▁familiar	-10.9632
▁cool	-10.9633
▁Blue	-10.9633
▁opposed	-10.9636
▁Britain	-10.9637
▁Bett	-10.9637
▁confirmed	-10.9639
▁Ambiente	-10.9639
▁weather	-10.9641
macht	-10.9646
▁remote	-10.9648
▁meat	-10.9649
known	-10.965
▁Berufs	-10.965
CA	-10.9651
▁britische	-10.9651
▁mer	-10.9652
och	-10.9652
ore	-10.9653
▁gelegt	-10.9654
▁mobility	-10.9657
▁Materialien	-10.966
▁Wirklichkeit	-10.9663
▁Harmonisierung	-10.9663
▁MA	-10.9665
▁bridge	-10.9665
▁camp	-10.9666
▁depend	-10.9669
▁MySQL	-10.9671
lf	-10.9673
▁senden	-10.9674
▁Strategien	-10.9674
▁Swedish	-10.968
▁happening	-10.968
▁Mut	-10.9683
▁drink	-10.9685
▁tief	-10.9687
cke	-10.969
▁besitzen	-10.9691
▁dans	-10.9691
tting	-10.9691
▁erfolgreiche	-10.9693
▁Stellung	-10.9693
▁Ausführung	-10.9698
▁kurzem	-10.9702
issen	-10.9704
▁Festlegung	-10.9704
▁domain	-10.9704
▁suffer	-10.9708
▁Kategorie	-10.9709
▁exceptional	-10.9709
▁happens	-10.9709
î	-10.971
▁laufen	-10.9711
▁Schiff	-10.9722
▁advantages	-10.9723
▁Mittelpunkt	-10.9724
▁bestehende	-10.9725
▁grand	-10.9727
▁Termin	-10.9728
▁sofern	-10.9728
rupt	-10.9729
▁bekannten	-10.9731
made	-10.9733
▁reserve	-10.9734
▁Erwartungen	-10.9736
▁grundlegenden	-10.9737
▁automatic	-10.9738
rent	-10.9738
▁firstly	-10.9739
▁obtained	-10.9746
▁Image	-10.9746
▁sit	-10.9746
kehr	-10.9747
▁Far	-10.9748
▁discovered	-10.975
▁Geschäft	-10.975
ular	-10.9752
▁Beschäftigungs	-10.9752
▁Schau	-10.9752
licht	-10.9756
▁Regime	-10.9758
▁Asyl	-10.976
▁argument	-10.976
▁abgelehnt	-10.976
MI	-10.9761
▁Umgang	-10.9761
ziel	-10.9762
▁öffnen	-10.9764
▁involvement	-10.9766
▁vollständige	-10.9766
misch	-10.9766
aire	-10.9766
▁schönsten	-10.9768
▁diseases	-10.977
▁hilft	-10.9771
▁derartige	-10.9771
ith	-10.9771
rid	-10.9773
▁schlecht	-10.9775
GA	-10.9775
fälle	-10.9777
▁accounts	-10.9778
situation	-10.9786
▁zusätzlichen	-10.9791
dre	-10.9791
▁Spezial	-10.9795
schiff	-10.9795
▁entschlossen	-10.9795
▁combating	-10.9795
▁faced	-10.9796
▁stream	-10.98
laden	-10.98
▁zweifellos	-10.9801
▁niemals	-10.9801
▁bike	-10.9803
▁kurze	-10.9809
▁geprüft	-10.981
▁120	-10.981
eth	-10.9813
ole	-10.9813
key	-10.9815
▁Kann	-10.9816
▁visual	-10.9817
▁Las	-10.9818
▁tend	-10.9819
▁voller	-10.9819
programme	-10.9821
▁Ohne	-10.9822
▁GNU	-10.9823
▁Ausgangspunkt	-10.9826
▁weshalb	-10.9828
ön	-10.9829
date	-10.983
water	-10.983
▁37	-10.9833
zeug	-10.9833
▁Jung	-10.9834
▁Bri	-10.9837
▁hostels	-10.9837
via	-10.9839
▁Vorsitz	-10.9841
▁einerseits	-10.9841
▁Detail	-10.9842
▁Wohlstand	-10.9843
▁Agrarpolitik	-10.985
▁gen	-10.9851
▁1989	-10.9852
▁schwierigen	-10.9853
▁33	-10.9854
▁covers	-10.9854
jährige	-10.9856
▁durchzuführen	-10.9857
▁tests	-10.9858
▁listen	-10.9859
▁largely	-10.9863
▁Automobil	-10.9863
▁passengers	-10.9864
▁except	-10.9864
lag	-10.9864
▁preparation	-10.9864
▁höher	-10.9868
SS	-10.9871
-20	-10.9872
▁1991	-10.9872
Po	-10.9877
▁Erinnerung	-10.9878
▁zuerst	-10.988
setzt	-10.9881
▁Liberal	-10.9881
▁Wild	-10.9882
▁leaving	-10.9885
▁Einheit	-10.9891
▁weltweiten	-10.9895
▁websites	-10.9896
▁18.	-10.9898
▁Veranstaltung	-10.9898
▁treaty	-10.9901
▁Alternative	-10.9903
▁inzwischen	-10.9904
kor	-10.9904
▁requirement	-10.9905
linie	-10.9906
sol	-10.9906
▁lebt	-10.9911
▁removed	-10.9912
▁Cri	-10.9912
▁Dusche	-10.9914
olo	-10.9916
▁Mensch	-10.9917
geht	-10.9917
brechen	-10.9918
▁Hostel	-10.9919
problem	-10.992
▁Übereinstimmung	-10.992
▁ST	-10.992
▁Stahl	-10.992
▁handle	-10.9921
▁stations	-10.9922
▁studio	-10.9924
▁protecting	-10.9924
▁Luxembourg	-10.9924
▁tea	-10.9926
▁Sicherung	-10.9929
100	-10.9933
▁angemessene	-10.9933
hält	-10.9942
rus	-10.9942
▁Marina	-10.9945
▁Küsten	-10.9945
▁sets	-10.9946
▁Reg	-10.9947
CK	-10.9947
▁Rock	-10.9948
▁entscheidend	-10.9949
▁Cu	-10.9954
lli	-10.9955
▁schreiben	-10.9958
▁strategies	-10.996
▁equally	-10.9961
zweck	-10.9961
pend	-10.9963
▁Procedure	-10.9966
▁Croatia	-10.9967
▁reg	-10.997
cat	-10.9972
▁tours	-10.9972
▁temporary	-10.9973
▁neuesten	-10.9973
ory	-10.9974
▁Mos	-10.9983
29	-10.9985
COM	-10.9987
maschinen	-10.9989
▁liberalisation	-10.9992
▁Balkon	-10.9994
würdig	-10.9994
▁experiences	-10.9994
▁Instead	-10.9995
▁fühlen	-10.9996
33	-11.0001
▁spoke	-11.0002
▁BE	-11.0003
▁Spe	-11.0011
skonferenz	-11.0011
▁Balkan	-11.0012
eva	-11.0012
▁lovely	-11.0012
▁layer	-11.0016
м	-11.0019
▁Stock	-11.002
CI	-11.0022
▁16.	-11.0024
▁handling	-11.0026
▁Mangel	-11.0028
▁einheitliche	-11.0028
▁configuration	-11.0029
▁gerichtet	-11.0033
lagen	-11.0033
▁eyes	-11.0033
▁spanischen	-11.0033
▁dream	-11.0036
▁Weiter	-11.0037
▁EN	-11.0038
organ	-11.0038
$	-11.0039
▁erreichbar	-11.004
▁fashion	-11.004
karten	-11.0041
▁Pin	-11.0043
hy	-11.0047
ace	-11.0047
▁10.	-11.0048
▁verändern	-11.0049
▁Kontext	-11.005
mic	-11.005
▁Sein	-11.005
▁Anfragen	-11.005
▁angegeben	-11.0054
▁fee	-11.0055
▁Schi	-11.0058
▁glad	-11.0065
▁Taiwan	-11.0067
Aus	-11.0068
▁Tom	-11.0069
Г	-11.0073
▁era	-11.0076
▁betreffenden	-11.0076
▁umzusetzen	-11.0078
bildung	-11.0079
field	-11.0079
▁entdeckt	-11.008
▁bound	-11.008
▁Ladies	-11.0081
▁Add	-11.0082
▁cap	-11.0083
▁submit	-11.0084
lei	-11.0084
▁(1	-11.0087
▁Ministers	-11.0087
ax	-11.009
▁awareness	-11.009
▁earth	-11.0091
▁Normen	-11.0092
▁Th	-11.0092
▁dé	-11.0093
▁Bulgaria	-11.0093
▁ähnliche	-11.0097
▁ruhigen	-11.0098
▁Putin	-11.01
▁Out	-11.0101
▁Town	-11.0102
▁remaining	-11.0105
▁Fort	-11.0105
▁restrictions	-11.0106
▁Pflanzen	-11.0107
geräte	-11.0108
▁Indian	-11.0109
▁Second	-11.0109
tig	-11.011
▁Bro	-11.0111
▁healthy	-11.0111
▁fehlt	-11.0112
▁dich	-11.0114
▁wichtiges	-11.0117
film	-11.0119
▁sichtbar	-11.0121
▁excessive	-11.0121
▁ausgezeichneten	-11.0122
▁pick	-11.0123
dan	-11.0123
▁balcony	-11.0123
▁replace	-11.0124
▁tr	-11.0125
▁Bill	-11.0125
kul	-11.0125
}	-11.0125
▁laden	-11.0127
▁serves	-11.013
TC	-11.013
licher	-11.0131
▁Gang	-11.0131
▁ursprünglichen	-11.0133
▁richten	-11.0134
▁sauber	-11.0134
▁recommendation	-11.0135
ando	-11.0136
▁anwesend	-11.0137
▁disk	-11.0138
sländer	-11.0143
▁Mission	-11.0143
▁suite	-11.0144
▁Elektro	-11.0146
wind	-11.0149
▁menschlichen	-11.015
▁Werke	-11.0152
34	-11.0153
▁gelöst	-11.0155
▁clause	-11.0157
▁abroad	-11.0161
▁cha	-11.0161
▁Ph	-11.0163
▁aufzunehmen	-11.0163
▁seat	-11.0164
▁ausgeführt	-11.0165
▁beraten	-11.0165
39	-11.0168
▁gold	-11.0171
▁reden	-11.0173
ional	-11.018
▁Angst	-11.0182
▁spezifische	-11.0182
▁fighting	-11.0183
▁musste	-11.0183
▁Bestellung	-11.0183
▁gender	-11.0184
▁dining	-11.0187
▁trifft	-11.0187
▁USD	-11.0187
▁involve	-11.0188
▁Verbesserungen	-11.0189
▁50%	-11.0194
▁Nahen	-11.0195
▁transportation	-11.0196
▁proportion	-11.0197
schnitt	-11.0197
▁Viertel	-11.02
lies	-11.02
▁Reservierung	-11.0202
▁Executive	-11.0202
▁Beispiele	-11.0202
▁verkauft	-11.0203
▁organizations	-11.0203
▁funktionieren	-11.0204
▁newly	-11.0204
auch	-11.0206
▁Opposition	-11.0207
▁edge	-11.0208
▁HD	-11.021
AP	-11.021
▁artist	-11.0211
▁returned	-11.0211
▁Gerichtshof	-11.0212
2)	-11.0213
ese	-11.0215
▁Gentoo	-11.0216
BA	-11.0219
▁GDP	-11.022
▁lobby	-11.022
▁Ausgabe	-11.0221
garten	-11.0224
▁identify	-11.0225
kurs	-11.0226
▁characteristics	-11.0229
▁Plenum	-11.0229
▁Hohen	-11.0231
▁zer	-11.0232
▁Church	-11.0234
▁Thomas	-11.0234
▁issued	-11.0236
▁vous	-11.0237
ban	-11.0238
fect	-11.0241
▁officials	-11.0241
▁gezogen	-11.0243
tta	-11.0243
▁brief	-11.0247
minute	-11.0248
ets	-11.0253
▁maintained	-11.0253
▁operational	-11.0254
▁offenen	-11.0254
▁heutige	-11.0254
▁Award	-11.0256
▁Canada	-11.0258
▁Sche	-11.0259
▁Ausmaß	-11.0261
▁legt	-11.0261
▁ausgesprochen	-11.0261
▁offices	-11.0265
▁texts	-11.0266
▁verhindert	-11.0266
▁erhebliche	-11.0268
▁Casa	-11.0269
▁friend	-11.027
eng	-11.0271
Bo	-11.0272
▁erinnert	-11.0273
▁Hostelsclub	-11.0273
▁Info	-11.0273
▁Vorgehen	-11.0276
▁Box	-11.0276
iere	-11.0276
▁precise	-11.0277
▁Mobilität	-11.0278
▁Verantwortlich	-11.0278
▁eigenes	-11.0279
lat	-11.028
äre	-11.0281
▁UNO	-11.0283
So	-11.0284
▁relative	-11.0285
▁Gro	-11.0285
▁Milch	-11.0286
▁erlauben	-11.0287
▁Gemeinde	-11.029
▁Find	-11.0293
▁unterzeichnet	-11.0293
▁Japanese	-11.0294
▁übernimmt	-11.0295
▁Konsens	-11.0295
▁renovated	-11.0296
Star	-11.0298
▁erlebt	-11.03
ever	-11.0301
▁Beschlüsse	-11.0302
▁Geschmack	-11.0305
▁spezialisiert	-11.0305
▁ausgeschlossen	-11.0311
gericht	-11.0311
▁Werkzeug	-11.0311
tch	-11.0312
sha	-11.0312
eh	-11.0312
▁decorated	-11.0314
ery	-11.032
▁ride	-11.0321
teilung	-11.0322
▁Freund	-11.0322
alter	-11.0322
steigen	-11.0323
leistungen	-11.0325
▁gewonnen	-11.0326
▁sprach	-11.0327
▁representation	-11.0328
▁root	-11.0332
mie	-11.0333
sinn	-11.0337
▁entrance	-11.0337
▁bekämpfen	-11.0337
ón	-11.0338
pha	-11.0338
▁Their	-11.0339
▁Besorgnis	-11.0339
▁riesigen	-11.0339
▁verurteilt	-11.0339
▁Year	-11.034
▁Gericht	-11.034
▁repair	-11.0341
▁Fahrt	-11.0344
▁snow	-11.0344
▁gratulieren	-11.0345
str	-11.0347
▁th	-11.0347
▁Edition	-11.0348
▁begrüßt	-11.0351
▁anschließend	-11.0351
▁soweit	-11.0353
▁Zusätzlich	-11.0353
▁ungefähr	-11.0353
▁ball	-11.0355
▁Heimat	-11.0357
▁religion	-11.036
▁verschiedener	-11.0363
hnen	-11.0364
▁BSE	-11.0365
▁Kapitel	-11.0365
▁Washington	-11.0367
gesetzt	-11.0368
lla	-11.0371
▁decisive	-11.0372
pot	-11.0372
head	-11.0373
▁fe	-11.0374
▁News	-11.0375
▁natürlichen	-11.0375
OM	-11.0377
▁Verarbeitung	-11.0379
fügen	-11.038
▁iron	-11.0381
¤	-11.0381
gebiete	-11.0382
geordnet	-11.0382
▁east	-11.0384
forschung	-11.0385
▁Andere	-11.0387
▁künftigen	-11.0388
▁Para	-11.0389
▁west	-11.0389
▁lay	-11.0389
▁contributions	-11.0391
▁Strukturen	-11.0393
▁geboren	-11.0394
▁Fair	-11.0395
ele	-11.0397
▁verbreitet	-11.0397
teile	-11.04
▁mu	-11.0401
▁Flugzeug	-11.0402
▁treat	-11.0403
▁vieler	-11.0404
▁passiert	-11.0406
55	-11.0407
▁5-	-11.0408
▁depends	-11.0408
▁dark	-11.0409
▁Budapest	-11.0411
▁Friday	-11.0411
▁Fleisch	-11.0413
▁properties	-11.0414
▁notwendige	-11.0414
▁multilateral	-11.0414
▁anstatt	-11.0414
▁Dach	-11.0415
kov	-11.0417
▁achten	-11.0418
▁Zuständigkeit	-11.0418
▁topic	-11.0419
▁buchen	-11.042
▁verdient	-11.042
▁Bearbeitung	-11.0421
sitz	-11.0422
▁pension	-11.0428
▁Legal	-11.0428
▁Regierungs	-11.043
card	-11.0432
II	-11.0432
ello	-11.0433
.”	-11.0436
▁gone	-11.0437
49	-11.0439
▁hardware	-11.044
▁wirksam	-11.0441
wn	-11.0441
durch	-11.0441
▁enhance	-11.0442
▁angesehen	-11.0442
▁Hilfs	-11.0442
▁auftreten	-11.0444
▁surroundings	-11.0445
▁ka	-11.0446
▁Reserve	-11.0446
▁Sunday	-11.0446
▁grosse	-11.0448
▁Jedes	-11.0449
MP	-11.0452
▁Aktien	-11.0452
▁Kongress	-11.0455
▁regularly	-11.0456
▁Maastricht	-11.0458
▁schnelle	-11.0458
▁34	-11.0461
▁Polish	-11.0461
▁Ber	-11.0461
Mo	-11.0461
▁ticket	-11.0462
▁freundlich	-11.0462
▁ethnic	-11.0462
MO	-11.0463
▁contracts	-11.0464
TO	-11.0464
▁Ce	-11.0465
sicher	-11.0466
struct	-11.0466
▁reduziert	-11.0467
fre	-11.047
blick	-11.0473
▁Fern	-11.0477
▁Ros	-11.0477
▁MEPs	-11.0478
▁Back	-11.0479
▁mögliche	-11.0479
scale	-11.048
▁endorse	-11.048
▁gap	-11.0482
▁manche	-11.0482
▁walls	-11.0484
Ar	-11.0484
▁Rund	-11.0485
ave	-11.0485
▁fordere	-11.0485
▁afternoon	-11.0486
▁Urteil	-11.0487
▁aufgefordert	-11.0488
quer	-11.0488
IG	-11.0491
rische	-11.0492
▁amounts	-11.0492
▁conducted	-11.0493
▁Beziehung	-11.0494
▁unmöglich	-11.0495
▁catch	-11.0495
▁Glauben	-11.0496
▁acknowledge	-11.0496
▁Schüler	-11.0497
erei	-11.0497
▁lie	-11.0497
▁uneingeschränkt	-11.05
▁Wachstums	-11.0502
▁Drittländern	-11.0503
▁Wähler	-11.0504
▁migration	-11.0507
▁sehe	-11.0507
related	-11.0507
▁exit	-11.0511
▁hervorheben	-11.0516
▁Schönheit	-11.0516
▁doesn	-11.0517
hal	-11.0517
▁variable	-11.0517
ähr	-11.0518
▁Tel	-11.0518
▁Krankheiten	-11.0518
▁Monetary	-11.0518
▁Krisen	-11.0519
▁annehmen	-11.052
▁direkte	-11.052
▁Zahlung	-11.052
Projekt	-11.0521
▁Farbe	-11.0521
▁OS	-11.0525
▁bezug	-11.0526
▁geprägt	-11.0528
▁letzter	-11.0528
▁performed	-11.0536
pli	-11.0536
▁Sonne	-11.0538
▁transition	-11.054
48	-11.0542
▁zugunsten	-11.0542
▁fleet	-11.0542
▁interpretation	-11.0543
▁Fre	-11.0544
▁expert	-11.0545
▁unverzüglich	-11.0549
▁Hol	-11.0551
▁Gre	-11.0554
▁öffentlich	-11.0558
▁kostet	-11.0558
▁load	-11.0559
▁finanziert	-11.0563
▁Ausführungen	-11.0563
▁charges	-11.0564
▁centres	-11.0565
▁generate	-11.0566
▁Verhandlungs	-11.0568
▁northern	-11.057
▁fr	-11.0572
▁collaboration	-11.0572
▁maritime	-11.0575
▁somewhat	-11.0575
▁communications	-11.0576
▁parents	-11.058
▁Cyprus	-11.0582
▁Char	-11.0583
▁Schrift	-11.0585
▁integriert	-11.0585
projekt	-11.0589
▁Congress	-11.0589
▁Water	-11.0591
bie	-11.0592
▁durchführen	-11.0592
ão	-11.0592
lands	-11.0593
▁konzentriert	-11.0596
▁Haar	-11.0597
IR	-11.0598
▁hostel	-11.0599
▁Tatsächlich	-11.0601
level	-11.0604
▁ähnlich	-11.0607
▁Noch	-11.0609
▁connect	-11.0609
▁Umfeld	-11.0611
▁waters	-11.0612
▁Autobahn	-11.0612
fahrer	-11.0613
▁WLAN	-11.0616
▁Geschäfte	-11.062
▁Übereinkommen	-11.0621
▁Einkaufs	-11.0622
▁reserves	-11.0623
fr	-11.0624
▁expansion	-11.0627
▁Steuern	-11.0627
▁avec	-11.0629
▁ven	-11.063
▁discount	-11.063
▁angemessen	-11.063
▁Comp	-11.0631
▁ernsthaft	-11.0632
new	-11.0632
▁radical	-11.0635
▁verstanden	-11.0636
▁nieder	-11.0636
▁regulatory	-11.0639
▁vorbereitet	-11.0639
▁einfacher	-11.0639
▁stylish	-11.0641
▁Plattform	-11.0641
pool	-11.0643
▁owner	-11.0643
▁minimal	-11.0645
bor	-11.0647
ENT	-11.0647
▁trend	-11.0649
▁hundreds	-11.0655
▁drug	-11.0658
▁Director	-11.0658
züge	-11.0658
▁zufolge	-11.0659
bli	-11.0659
▁ausgesetzt	-11.066
▁calm	-11.066
▁Kroatien	-11.066
▁beglückwünschen	-11.0661
▁klein	-11.0662
€	-11.0663
▁fu	-11.0664
▁displayed	-11.0665
path	-11.0665
▁Vorschlägen	-11.0666
gänge	-11.0667
ital	-11.067
▁pra	-11.067
aten	-11.0672
▁gift	-11.0672
66	-11.0673
▁parliaments	-11.0674
▁bestätigen	-11.0674
▁Ol	-11.0674
▁intelligent	-11.0678
bert	-11.0679
▁frequently	-11.0679
▁driver	-11.0679
▁wahr	-11.0679
▁joined	-11.0679
és	-11.068
}})	-11.0685
▁Sony	-11.0686
▁occur	-11.0686
▁Ware	-11.0689
▁ultimately	-11.0693
▁verehrte	-11.07
▁zentralen	-11.0701
▁customs	-11.0703
▁sample	-11.0705
ians	-11.0706
▁updated	-11.0707
▁verbringen	-11.0707
schluss	-11.0708
yn	-11.071
▁zuständigen	-11.071
▁Bulgarien	-11.071
▁sodass	-11.071
▁herrscht	-11.0712
▁Zahlungs	-11.0712
▁Protection	-11.0713
Strategie	-11.0716
▁messages	-11.0716
▁Neue	-11.0717
▁reported	-11.0717
uri	-11.0721
▁Fähigkeiten	-11.0721
For	-11.0722
43	-11.0723
▁invest	-11.0723
staaten	-11.0724
cz	-11.0724
▁ought	-11.0724
▁lock	-11.0725
▁Import	-11.0725
ident	-11.0725
▁minority	-11.0726
▁magazine	-11.0727
▁grateful	-11.0729
▁militärische	-11.0731
ierbar	-11.0731
▁Framework	-11.0732
▁Deutsch	-11.0732
▁Ter	-11.0734
kal	-11.0734
gor	-11.0736
▁Page	-11.0739
▁({{	-11.0739
ches	-11.0739
nov	-11.0739
-03	-11.0741
▁starten	-11.0741
▁Know	-11.0742
▁früheren	-11.0743
▁cash	-11.0743
▁Krankheit	-11.0747
▁entscheidende	-11.0752
▁youth	-11.0754
ically	-11.0758
geschichte	-11.0759
▁emergency	-11.076
▁einfachen	-11.0762
▁millions	-11.0763
▁organized	-11.0763
▁bezahlen	-11.0766
▁Vorstellung	-11.0767
▁Game	-11.0767
py	-11.0768
ville	-11.0769
Bahn	-11.0772
▁bestimmen	-11.0776
sid	-11.0777
▁nachhaltigen	-11.0778
cks	-11.0778
▁directives	-11.078
▁pillar	-11.0782
AU	-11.0782
ane	-11.0783
▁KMU	-11.0783
▁Nu	-11.0784
table	-11.0784
tergovernmental	-11.0785
▁Baltic	-11.0785
ée	-11.0787
▁Mandat	-11.0791
national	-11.0795
▁14.	-11.0797
▁Verringerung	-11.0799
▁Ganz	-11.0801
▁Arbeitsplätzen	-11.081
▁beruht	-11.0811
▁liefert	-11.0812
▁Up	-11.0814
treten	-11.0815
▁techniques	-11.0818
▁pla	-11.0819
▁Punkten	-11.0821
yo	-11.0821
▁Metro	-11.0821
▁Update	-11.0822
▁Email	-11.0822
▁Geschwindigkeit	-11.0823
▁Entlastung	-11.0825
▁Konzern	-11.0826
▁constitute	-11.0827
DR	-11.0827
▁conflicts	-11.0828
▁serviert	-11.083
▁demanding	-11.0833
▁meant	-11.0834
politische	-11.0834
ks	-11.0837
▁Ball	-11.0842
▁Vol	-11.0843
▁bottom	-11.0845
▁knows	-11.0847
▁Verlust	-11.0852
Ch	-11.0854
▁Customer	-11.0857
▁kurzen	-11.0857
▁looks	-11.0859
▁seeing	-11.0859
▁Werbung	-11.086
▁va	-11.0863
▁faster	-11.0863
▁heritage	-11.0864
leitung	-11.0865
▁Michel	-11.0865
▁convert	-11.0866
▁electricity	-11.0868
like	-11.0868
▁retain	-11.0869
lines	-11.0869
▁declaration	-11.0873
▁Arbeitsplatz	-11.0874
▁straight	-11.0874
por	-11.0875
▁Prinzipien	-11.0875
ffe	-11.0876
hör	-11.0878
rät	-11.088
▁divided	-11.088
SL	-11.0886
▁überzeugen	-11.0886
srecht	-11.0886
▁Europol	-11.0887
▁eat	-11.0888
▁hängt	-11.0891
▁proof	-11.0892
▁increases	-11.0893
aj	-11.0893
RC	-11.0894
▁Feuer	-11.0894
▁angepasst	-11.0896
▁Intervention	-11.0896
gegeben	-11.0897
raten	-11.0897
▁Earth	-11.0898
▁Tool	-11.0899
boot	-11.0899
▁succeed	-11.09
▁qua	-11.0901
schule	-11.0909
▁aufge	-11.091
▁Science	-11.0913
▁percent	-11.0915
▁constitution	-11.0915
äl	-11.0916
▁delighted	-11.0916
uten	-11.0919
igh	-11.0924
det	-11.0926
▁EP	-11.0928
▁Gesicht	-11.0929
▁Hat	-11.093
▁protocol	-11.093
▁Glück	-11.0931
▁producing	-11.0935
▁relaxation	-11.0937
▁helps	-11.0937
▁Prag	-11.0937
maschine	-11.0939
▁Atom	-11.0939
▁tackle	-11.0939
▁visible	-11.094
▁multinational	-11.0943
▁Mexico	-11.0945
▁konsequent	-11.0945
▁verleihen	-11.0945
▁demonstrate	-11.0947
▁impose	-11.0947
▁Verein	-11.0947
▁cell	-11.0949
2010	-11.0951
sichtig	-11.0955
▁Konto	-11.0959
▁früh	-11.0959
plätze	-11.096
▁Konvent	-11.096
▁Zusatz	-11.0961
▁statistics	-11.0964
ín	-11.0965
36	-11.0965
▁Einbeziehung	-11.0965
rechts	-11.0966
▁welfare	-11.0967
▁Hostels	-11.0967
TR	-11.0968
rand	-11.0969
▁Investment	-11.0969
▁Karl	-11.097
mü	-11.0972
▁Zusammenhalt	-11.0972
▁unver	-11.0973
Ä	-11.0974
▁pollution	-11.0974
lam	-11.0976
▁Food	-11.0977
atory	-11.0978
▁department	-11.0979
Or	-11.0979
▁personnel	-11.0979
▁Zone	-11.0981
▁Drittens	-11.0982
▁cutting	-11.0984
ars	-11.0984
▁accident	-11.0985
▁Israeli	-11.0986
▁Amt	-11.0987
▁Widerstand	-11.099
▁eingegangen	-11.0992
krise	-11.0993
▁library	-11.0994
▁employ	-11.0994
▁orders	-11.0996
▁widely	-11.0999
▁offene	-11.1003
▁Sammlung	-11.1006
▁10%	-11.1008
▁MO	-11.1012
▁Tru	-11.1014
▁channel	-11.1015
▁investors	-11.1015
ы	-11.1016
Ja	-11.1018
▁geboten	-11.1021
▁Malta	-11.1021
▁differ	-11.1023
я	-11.1026
▁Whether	-11.1026
▁prison	-11.1026
iß	-11.1027
zel	-11.103
reise	-11.1032
figur	-11.1033
▁PA	-11.1033
▁entsteht	-11.1036
▁Prague	-11.1036
▁bright	-11.1037
▁subsidies	-11.1038
▁Schuld	-11.1039
▁tro	-11.104
▁Abs	-11.104
▁aufnehmen	-11.104
▁inhabitants	-11.1041
▁assure	-11.1042
▁eingereicht	-11.1043
▁kontrolliert	-11.1043
▁kämpfen	-11.1046
▁opinions	-11.1046
▁38	-11.1046
ppel	-11.1048
▁weitgehend	-11.1048
▁Gerichte	-11.1049
▁terrorist	-11.1052
ér	-11.1052
▁willing	-11.1053
isierte	-11.1053
▁kurzfristig	-11.1053
▁Rechtsgrundlage	-11.1054
gr	-11.1054
▁Kompetenz	-11.1055
▁careful	-11.1056
sprache	-11.1057
▁Faktoren	-11.106
stoffe	-11.106
▁cooperate	-11.106
▁Gal	-11.1066
▁plastic	-11.1068
▁Place	-11.1068
lement	-11.1069
▁inflation	-11.107
▁Ehe	-11.107
lot	-11.1072
▁proved	-11.1072
▁Deutschen	-11.1073
▁Professor	-11.1073
▁Frank	-11.1074
▁2008.	-11.1075
42	-11.1075
▁Portuguese	-11.1078
▁Transfer	-11.1078
▁Georgia	-11.1079
▁exciting	-11.108
▁Ltd	-11.1081
но	-11.1083
▁Sollte	-11.1084
▁Baby	-11.1084
▁Kräfte	-11.1086
▁Gewährleistung	-11.1088
▁maintaining	-11.109
▁competent	-11.1096
aries	-11.1096
▁Dan	-11.1097
▁indicated	-11.1098
informationen	-11.1099
ctic	-11.11
führt	-11.11
gerät	-11.1102
▁understood	-11.1103
▁stolz	-11.1105
nel	-11.1106
▁individuell	-11.1107
▁komfortable	-11.1108
▁Cam	-11.1109
▁harm	-11.1109
▁Wünsche	-11.111
▁honour	-11.111
▁welchem	-11.1111
▁Holiday	-11.1112
iving	-11.1112
gesellschaften	-11.1113
▁gespielt	-11.1114
▁ersetzt	-11.1115
gro	-11.1116
▁effektiv	-11.1117
▁finish	-11.1117
▁Read	-11.1117
▁Fal	-11.1118
▁oral	-11.1119
▁Rezeption	-11.112
▁Besonders	-11.112
▁Organ	-11.1121
▁cosy	-11.1123
kräfte	-11.1124
▁Fluss	-11.1126
lip	-11.1126
▁Road	-11.1127
place	-11.1127
-19	-11.1127
▁Tan	-11.1127
▁proven	-11.1128
▁20%	-11.1128
▁corresponding	-11.1129
▁interpret	-11.113
▁showing	-11.1132
▁Common	-11.1133
isches	-11.1134
▁stored	-11.1134
fähig	-11.1135
▁foundation	-11.1135
▁channels	-11.1136
▁Wechsel	-11.1137
▁Pact	-11.1137
▁visiting	-11.1137
▁geäußert	-11.1137
▁Single	-11.1138
▁ku	-11.1138
▁ferner	-11.1138
▁Kol	-11.1139
▁Han	-11.114
▁demonstrated	-11.1143
▁gezwungen	-11.1145
▁Ankunft	-11.1146
▁appearance	-11.1147
86	-11.1149
▁Pat	-11.1151
▁wollten	-11.1152
▁Anwender	-11.1152
kü	-11.1153
▁staatlichen	-11.1154
▁generell	-11.1155
▁42	-11.1155
▁Alpen	-11.1159
▁massage	-11.116
▁focused	-11.1161
▁aktuell	-11.1161
NS	-11.1162
▁Sim	-11.1162
▁Bildungs	-11.1162
media	-11.1166
▁metro	-11.1167
▁boost	-11.117
▁pot	-11.1171
region	-11.1172
neu	-11.1173
front	-11.1174
▁wann	-11.1176
Vor	-11.1177
ym	-11.1177
▁erleichtern	-11.1177
bur	-11.1179
▁Zypern	-11.118
fläche	-11.118
▁suites	-11.118
▁hochwertige	-11.1181
▁visited	-11.1181
▁Full	-11.1181
▁ausgezeichnet	-11.1182
▁Verbreitung	-11.1182
▁referendum	-11.1182
▁involves	-11.1183
ación	-11.1183
ming	-11.1184
▁follows	-11.1184
▁behaviour	-11.1185
▁decline	-11.1186
▁Em	-11.1188
▁windows	-11.1188
▁vereinbart	-11.1189
stra	-11.1189
▁perfekte	-11.119
▁Copenhagen	-11.1192
reicht	-11.1193
He	-11.1193
▁provider	-11.1193
EA	-11.1194
▁Luxus	-11.1196
▁Leitung	-11.1197
dos	-11.1198
▁depending	-11.1198
▁geltenden	-11.1199
▁bra	-11.1199
▁Einwohner	-11.12
betrieb	-11.1201
▁spoken	-11.1202
rest	-11.1203
▁Who	-11.1203
style	-11.1203
▁Ruf	-11.1204
▁Registrierung	-11.1205
▁pur	-11.1205
▁Freiheiten	-11.1207
imp	-11.1208
▁Schweizer	-11.1209
Ha	-11.1211
ify	-11.1211
lé	-11.1214
▁accompanied	-11.1218
▁parlamentarisch	-11.122
▁Deswegen	-11.122
▁hinzufügen	-11.122
▁Massen	-11.1221
long	-11.1221
▁vorbei	-11.1221
▁citizen	-11.1222
▁Access	-11.1223
▁fitness	-11.1224
▁exp	-11.1226
▁prize	-11.1229
▁entwickelten	-11.1229
▁comparison	-11.1233
▁Newsletter	-11.1233
▁documentation	-11.1233
▁Bemerkungen	-11.1235
merk	-11.1237
▁Pläne	-11.1238
▁Wal	-11.1241
▁Il	-11.1244
▁ES	-11.1245
▁Meeting	-11.1245
▁sugar	-11.1247
▁bug	-11.1248
▁westlichen	-11.1248
pping	-11.1252
▁Wohl	-11.1254
▁islands	-11.1259
▁Sorgen	-11.1261
▁Adobe	-11.1263
ativ	-11.1264
▁resolutions	-11.1266
88	-11.1269
▁pieces	-11.1269
▁answers	-11.1271
▁nahezu	-11.1271
▁facility	-11.1271
▁resistance	-11.1273
▁profile	-11.1274
▁rapporteurs	-11.1275
ais	-11.1277
▁1970	-11.1278
▁settings	-11.1278
▁examine	-11.128
frist	-11.1281
nal	-11.1283
38	-11.1285
bis	-11.1287
▁finished	-11.1288
▁consent	-11.1288
find	-11.1291
▁drivers	-11.1298
▁Aktionsplan	-11.1301
▁flights	-11.1301
▁Himmel	-11.1301
▁enger	-11.1302
graph	-11.1302
ua	-11.1302
▁Ungarn	-11.1303
▁Training	-11.1305
cies	-11.1305
▁solange	-11.131
▁strike	-11.1311
▁vorlegen	-11.1311
▁Partnern	-11.1314
▁dates	-11.1315
▁Bibliothek	-11.1318
▁freundliche	-11.132
ule	-11.1321
▁passenger	-11.1323
▁connections	-11.1323
▁Canon	-11.1324
matic	-11.1325
▁recording	-11.1328
▁spectacular	-11.1329
▁hearing	-11.133
äum	-11.133
▁Mari	-11.1331
▁ongoing	-11.1332
▁Erzeugnisse	-11.1333
▁carbon	-11.1333
▁Brief	-11.1333
▁legitimate	-11.1335
▁letztlich	-11.1336
ded	-11.1337
▁unfair	-11.1338
▁verringern	-11.1339
▁mostly	-11.1339
▁creates	-11.1341
für	-11.1342
]].	-11.1343
▁chinesischen	-11.1343
▁concluded	-11.1344
▁verteilt	-11.1344
inal	-11.1344
weisung	-11.1344
▁mitten	-11.1346
▁tourists	-11.1346
▁SMEs	-11.1347
Server	-11.1348
▁Konzert	-11.1349
▁inner	-11.1353
03	-11.1353
▁exception	-11.1354
▁höheren	-11.1354
▁bemühen	-11.1354
▁categories	-11.1355
▁getrennt	-11.1357
▁bedeutende	-11.1358
85	-11.1359
▁Tibet	-11.1364
▁owners	-11.1365
▁overcome	-11.1365
▁effectiveness	-11.1365
▁echten	-11.1367
▁Außenpolitik	-11.1368
med	-11.137
▁15.	-11.1371
▁controlled	-11.1372
aff	-11.1378
▁Funds	-11.1378
▁tight	-11.1379
▁Fernseh	-11.138
vertrag	-11.138
▁beendet	-11.138
▁Weil	-11.1385
▁printing	-11.1385
▁komplette	-11.1387
▁raw	-11.139
▁spezifischen	-11.1395
▁sah	-11.1395
▁plenty	-11.1398
▁scheme	-11.1398
lass	-11.1399
▁James	-11.1399
▁Autor	-11.14
▁Webseiten	-11.1403
▁fulfil	-11.1403
▁Unterhaltung	-11.1404
▁Vereinbarungen	-11.1406
▁lunch	-11.1406
▁Play	-11.1409
▁knapp	-11.1409
▁Kopie	-11.141
▁Yes	-11.1413
▁bill	-11.1413
67	-11.1414
▁Tip	-11.1418
kur	-11.1419
▁Serie	-11.142
▁replaced	-11.1423
▁ruhig	-11.1424
▁Perhaps	-11.1426
▁Ram	-11.1428
▁Kirk	-11.1429
ffer	-11.1432
▁heating	-11.1434
lina	-11.1435
▁Korruption	-11.1436
▁Gespräche	-11.1437
▁speaker	-11.1438
▁minorities	-11.1439
▁Stra	-11.144
▁input	-11.1441
▁Anschluss	-11.1442
▁Apple	-11.1443
▁Travel	-11.1444
й	-11.1446
▁Sat	-11.1448
▁2012	-11.1454
▁Wird	-11.1455
▁Kan	-11.1457
▁Bücher	-11.146
▁trafficking	-11.146
▁lokale	-11.1461
ump	-11.1461
▁chemical	-11.1462
▁corruption	-11.1462
▁WC	-11.1463
▁rational	-11.1463
▁wines	-11.1463
▁Bas	-11.1464
▁educational	-11.1464
▁Cra	-11.1466
▁Pol	-11.1467
▁Nummer	-11.1468
▁Brazil	-11.147
nutz	-11.1471
▁österreichische	-11.1472
▁Description	-11.1473
▁definitely	-11.1474
▁ice	-11.1475
▁san	-11.1477
OW	-11.1478
▁Archiv	-11.1479
▁Metall	-11.1479
▁awarded	-11.148
▁constitutional	-11.1481
partei	-11.1482
▁manufacturer	-11.1486
ned	-11.149
▁mistake	-11.1491
▁Ak	-11.1493
AG	-11.1495
▁Subsidiarität	-11.1495
▁Betrag	-11.1497
▁imagine	-11.1498
з	-11.1498
▁Consumer	-11.1501
Vi	-11.1501
arian	-11.1501
▁immigrants	-11.1503
▁Hungarian	-11.1506
▁Schiffe	-11.1508
meister	-11.1509
▁blind	-11.1509
▁größer	-11.1509
▁Eigentum	-11.1511
65	-11.1511
▁concert	-11.1512
Wa	-11.1512
▁usual	-11.1513
fehl	-11.1514
reisen	-11.1517
fl	-11.1519
▁korrekt	-11.1521
▁textile	-11.1521
▁edition	-11.1523
▁signs	-11.1525
▁Max	-11.1526
▁OR	-11.1526
tier	-11.153
UM	-11.1534
▁pr	-11.1534
▁milk	-11.1537
griff	-11.1539
▁langfristige	-11.1541
▁gardens	-11.1541
fassung	-11.1541
▁Games	-11.1542
lösungen	-11.1542
▁rapidly	-11.1543
▁Gaza	-11.1543
▁Rand	-11.1544
bs	-11.1544
Un	-11.1544
▁Güter	-11.1544
▁AC	-11.1545
▁sex	-11.1546
▁recorded	-11.1547
▁woman	-11.1548
▁Project	-11.1551
▁gering	-11.1552
▁Gefahren	-11.1553
Ko	-11.1555
▁organisieren	-11.1556
▁behalten	-11.1559
GE	-11.156
▁prime	-11.1562
▁direkten	-11.1563
bon	-11.1564
▁installieren	-11.1566
▁aktive	-11.1567
▁Massage	-11.1567
▁Verbindungen	-11.157
ios	-11.157
vid	-11.1571
▁Chancen	-11.1573
▁Qui	-11.1573
▁Soviet	-11.1573
▁pen	-11.1574
▁Ä	-11.1575
Kon	-11.1575
zin	-11.1577
▁ordnungsgemäß	-11.1579
▁humanitäre	-11.158
Applause	-11.1581
▁Alexander	-11.1584
▁revision	-11.1586
▁casino	-11.1586
▁departure	-11.1587
konzept	-11.159
▁compatible	-11.1593
п	-11.1593
law	-11.1595
▁BIP	-11.1595
▁za	-11.1598
▁magnificent	-11.1599
▁imposed	-11.16
▁Modul	-11.1601
▁Zwecke	-11.1601
▁Auge	-11.1603
▁virtual	-11.1603
uring	-11.1603
▁destruction	-11.1605
▁Sollten	-11.1608
abkommen	-11.1609
ı	-11.1613
GB	-11.1614
▁errichtet	-11.1614
▁Insbesondere	-11.1615
▁centuries	-11.1615
▁dance	-11.1616
▁verbinden	-11.1617
▁Betracht	-11.1619
zahlen	-11.1621
▁adopting	-11.1621
Wi	-11.1623
▁struggle	-11.1623
▁chair	-11.1624
▁65	-11.1627
räumen	-11.1627
nia	-11.1627
▁Komponenten	-11.1627
ionen	-11.1629
▁Führer	-11.1629
▁diesbezüglich	-11.1632
▁assets	-11.1633
▁beschäftigen	-11.1633
▁pursue	-11.1634
▁Stimmen	-11.1634
▁Regen	-11.1635
▁uniform	-11.1636
▁desired	-11.1638
▁wiederholen	-11.1638
▁Übertragung	-11.1639
▁palästinensisch	-11.1641
▁deals	-11.1642
AD	-11.1642
iva	-11.1644
▁Respekt	-11.1646
▁Wetter	-11.1647
▁nunmehr	-11.1647
wards	-11.1652
onne	-11.1653
▁grant	-11.1654
▁charm	-11.1654
▁Stockholm	-11.1654
▁Vorhaben	-11.1656
▁flu	-11.1659
folge	-11.166
▁entspannen	-11.1663
ssysteme	-11.1664
▁tickets	-11.1666
!!	-11.1667
▁Given	-11.1668
▁occasions	-11.1668
▁Mas	-11.167
TER	-11.1671
swert	-11.1671
▁containing	-11.1672
ire	-11.1673
jährigen	-11.1675
▁Northern	-11.1675
schuld	-11.1675
tem	-11.1676
fähigkeit	-11.1677
▁expand	-11.1678
▁Miet	-11.1678
▁appointed	-11.1679
▁ré	-11.168
▁Untersuchungen	-11.1681
▁respected	-11.1681
▁arrived	-11.1682
▁übrigens	-11.1685
Wir	-11.1688
▁neutral	-11.1689
essen	-11.1691
▁mi	-11.1691
Com	-11.1693
▁province	-11.1694
▁communicate	-11.1694
ehr	-11.1694
▁Gegenstand	-11.1695
▁manager	-11.1696
ierenden	-11.1697
▁subsidiarity	-11.1699
▁nützlich	-11.1701
▁judicial	-11.1707
▁Projekten	-11.1709
▁einheitlichen	-11.1711
▁neun	-11.1713
▁55	-11.1715
▁Gesellschaften	-11.1715
▁possibly	-11.1715
▁interessant	-11.1717
▁Fitness	-11.1718
▁jenen	-11.1719
▁hundred	-11.172
▁dry	-11.1721
▁Exchange	-11.1721
▁bezahlt	-11.1721
▁Gesetzes	-11.1723
▁ou	-11.1725
dom	-11.1725
▁wage	-11.1725
▁credibility	-11.1726
▁rechtlichen	-11.1727
▁offenbar	-11.1728
▁Förder	-11.1728
▁correctly	-11.1729
▁Handlung	-11.1731
▁fuer	-11.1734
▁sending	-11.1734
▁Del	-11.1736
▁IV	-11.1736
▁gallery	-11.1739
viertel	-11.174
▁Schlussfolger	-11.1741
▁Hungary	-11.1742
ktor	-11.1743
▁Marktes	-11.1744
▁Belgium	-11.1744
oma	-11.1744
▁vorstellen	-11.1745
▁Angel	-11.1745
▁rot	-11.1746
▁transactions	-11.175
operation	-11.1751
▁Websites	-11.1752
gno	-11.1753
▁Erfüllung	-11.1753
ox	-11.1755
▁Gleichstellung	-11.1755
▁fur	-11.1756
▁Traum	-11.1759
▁enjoyed	-11.176
▁Content	-11.176
▁ließ	-11.1761
▁Steuerung	-11.1762
▁optimale	-11.1762
▁professionelle	-11.1763
▁revolution	-11.1764
▁Renten	-11.1764
▁Vorlage	-11.1767
▁Desk	-11.1767
▁Puerto	-11.1768
stil	-11.1768
▁dürfte	-11.1771
▁cast	-11.1773
▁Zeitung	-11.1774
▁führende	-11.1774
▁Ausflüge	-11.1777
▁Operation	-11.1777
Sp	-11.1778
ê	-11.1778
lk	-11.1779
▁luxurious	-11.1779
abel	-11.1779
▁wirksame	-11.178
werte	-11.1781
▁Freitag	-11.1781
▁satisfied	-11.1781
▁artistic	-11.1782
▁conditioning	-11.1784
prozess	-11.1784
▁satisfy	-11.1784
▁functioning	-11.1785
▁declared	-11.1786
▁emerging	-11.1787
Tra	-11.1787
schaffen	-11.179
▁Charles	-11.179
▁Following	-11.1792
▁Unternehmer	-11.1795
gua	-11.1798
ias	-11.1799
▁firms	-11.18
▁Structural	-11.18
▁narrow	-11.18
▁verkaufen	-11.1803
▁Guide	-11.1804
▁brachte	-11.1807
▁Zucker	-11.1808
▁alcohol	-11.1808
typ	-11.1808
General	-11.1809
Gr	-11.1809
cro	-11.1814
leiter	-11.1815
▁minor	-11.1815
▁Rio	-11.1816
Datei	-11.1816
zza	-11.1816
marquis	-11.1816
в	-11.1817
▁flood	-11.1819
▁Bemerkung	-11.1821
▁Visa	-11.1822
ütz	-11.1822
▁crimes	-11.1824
partner	-11.1825
▁genannte	-11.1825
▁didn	-11.1826
▁reduzieren	-11.1827
fel	-11.1828
lation	-11.183
▁globalisation	-11.1831
▁Ticket	-11.1831
ici	-11.1832
spe	-11.1833
gon	-11.1834
▁Filter	-11.1835
bat	-11.1835
▁Darstellung	-11.1836
▁legitim	-11.1838
tos	-11.1838
▁stronger	-11.1839
▁Tabak	-11.1839
Mar	-11.1839
▁functional	-11.1839
▁substance	-11.1842
▁Thursday	-11.1843
▁betreffend	-11.1845
▁kosten	-11.185
▁Amendments	-11.1853
▁Café	-11.1856
/20	-11.1856
▁belong	-11.1858
▁Wissenschaftler	-11.1858
gie	-11.1861
▁letztendlich	-11.1862
▁Lounge	-11.1864
▁horizontal	-11.1864
▁taxation	-11.1866
▁Bereitstellung	-11.1867
pläne	-11.1867
ret	-11.187
▁Institut	-11.1871
▁pure	-11.1873
hle	-11.1873
▁Within	-11.1873
▁commit	-11.1873
▁einig	-11.1874
▁zerstört	-11.1875
▁Rechnungshof	-11.1875
▁cent	-11.1876
▁Tausende	-11.1876
▁inclusion	-11.188
▁Herkunft	-11.188
▁distributed	-11.1881
itor	-11.1884
▁partly	-11.1885
▁verstärken	-11.1886
FA	-11.1886
▁vorhandenen	-11.1887
tat	-11.1887
▁Son	-11.1887
▁pilot	-11.1889
▁aussprechen	-11.189
▁Spaß	-11.189
ats	-11.1891
▁Hamas	-11.1893
kauf	-11.1893
▁debates	-11.1895
▁(3	-11.1897
▁Fußball	-11.1897
1.	-11.1898
▁films	-11.19
▁rechtzeitig	-11.1902
▁slightly	-11.1902
▁jener	-11.1904
▁miles	-11.1904
▁adventure	-11.1905
▁stehenden	-11.1905
▁Verlauf	-11.1905
▁encouraging	-11.1907
mobil	-11.1908
▁Mobile	-11.191
▁2009,	-11.1911
ç	-11.1915
▁Women	-11.1915
▁thousand	-11.1916
▁Lehr	-11.1918
▁routes	-11.192
▁Oder	-11.192
▁unabhängige	-11.1923
▁Dienstleistungs	-11.1926
▁identified	-11.1926
▁Bla	-11.1927
▁individuellen	-11.1927
▁Rule	-11.1929
▁realistic	-11.193
▁Städten	-11.193
ima	-11.193
▁komme	-11.1931
oon	-11.1932
▁Befugnisse	-11.1933
▁Objekt	-11.1933
kenn	-11.1935
▁Ap	-11.1937
▁eingebracht	-11.1938
▁angelegt	-11.194
▁Schlacht	-11.194
▁schlägt	-11.1941
▁Valley	-11.1943
▁dargestellt	-11.1943
check	-11.1945
р	-11.1946
▁eastern	-11.1947
▁2013	-11.1949
dauer	-11.1952
cip	-11.1952
gegen	-11.1953
▁preparing	-11.1953
ih	-11.1954
▁Weltkrieg	-11.1955
▁adults	-11.1956
▁gefährdet	-11.1956
▁Brasilien	-11.1956
▁Lang	-11.1958
▁Versammlung	-11.196
▁BMW	-11.1961
▁Tennis	-11.1963
▁Migration	-11.1964
▁Kaiser	-11.1965
▁Schw	-11.1965
▁Monday	-11.1965
strategie	-11.1965
▁angewandt	-11.1966
cut	-11.1966
▁addresses	-11.1969
stände	-11.1969
automat	-11.1971
▁PRO	-11.1975
tions	-11.1975
ierungen	-11.1977
▁Sudan	-11.1977
▁considering	-11.198
▁eure	-11.1983
▁sleep	-11.1984
▁pack	-11.1985
▁niedriger	-11.1986
▁component	-11.1987
▁Freunden	-11.1987
▁Christ	-11.1988
nger	-11.1988
▁Tochter	-11.1988
▁Kom	-11.1989
▁Charta	-11.1992
▁extraordinary	-11.1994
beschreibung	-11.1994
mod	-11.1995
▁Mitgliedschaft	-11.1996
▁Hel	-11.1997
о	-11.1998
▁ehemalige	-11.1998
▁Fan	-11.1998
▁Kopenhagen	-11.1999
▁Armen	-11.2
schi	-11.2001
but	-11.2003
▁survey	-11.2005
▁Porto	-11.2006
ité	-11.2007
▁trouble	-11.2007
▁plenary	-11.201
▁Eu	-11.201
sstrategie	-11.2011
▁Castle	-11.2015
▁condemn	-11.2016
▁Luc	-11.2016
▁attend	-11.2017
urlaub	-11.2018
▁angegebenen	-11.2018
▁praktische	-11.2019
▁contacts	-11.202
▁army	-11.202
▁Call	-11.202
▁nahm	-11.202
▁Space	-11.202
▁certificate	-11.2021
chte	-11.2023
▁Wandel	-11.2024
NE	-11.2028
▁committees	-11.2028
pet	-11.2033
▁stick	-11.2036
▁experiment	-11.2037
▁Verletzung	-11.2037
▁Satz	-11.2038
▁resolved	-11.2039
▁Var	-11.2041
▁deadline	-11.2042
▁musical	-11.2042
▁bestimmter	-11.2042
prüfung	-11.2043
2001	-11.2045
▁suppliers	-11.2046
▁Sektoren	-11.2046
pin	-11.2046
▁VI	-11.2047
71	-11.2049
▁kamen	-11.2049
▁Orte	-11.2056
bla	-11.2057
▁manufacture	-11.2057
▁Bauern	-11.2057
▁forum	-11.2057
▁Würde	-11.2059
spielen	-11.2065
▁Optionen	-11.2065
▁äußern	-11.2065
▁Männern	-11.2067
▁russischen	-11.2069
▁AKP	-11.207
ieß	-11.2073
44	-11.2074
▁Sozialdemokrat	-11.2076
▁organise	-11.2076
▁empfohlen	-11.2076
▁appeared	-11.2077
▁Lehrer	-11.2077
hne	-11.2081
▁Assembly	-11.2081
▁Parkplatz	-11.2082
▁Apart	-11.2085
träger	-11.2087
▁Four	-11.2089
fonds	-11.209
▁bas	-11.209
▁ultra	-11.2092
lieb	-11.2095
▁Wander	-11.2096
mul	-11.2097
fort	-11.2097
▁empfangen	-11.2098
▁Mitarbeitern	-11.2099
losen	-11.2099
▁honest	-11.21
cas	-11.21
liefer	-11.2102
▁everyday	-11.2102
▁Chr	-11.2104
▁Wochenende	-11.2106
produkt	-11.2106
▁VAT	-11.2107
▁deficit	-11.2107
state	-11.2109
ress	-11.2109
▁ursprünglich	-11.211
▁vermitteln	-11.2111
▁sphere	-11.2111
▁Terror	-11.2113
▁flag	-11.2113
kette	-11.2113
▁absence	-11.2114
far	-11.2115
▁Tauch	-11.2115
▁info	-11.2116
oper	-11.2118
▁poly	-11.2119
ROM	-11.2119
▁enorme	-11.212
▁Erstellung	-11.212
▁Thirdly	-11.2124
▁housing	-11.2125
▁Handy	-11.2126
▁traditions	-11.2127
▁duties	-11.2127
▁Piazza	-11.2128
▁courts	-11.2129
▁Nos	-11.2137
▁beigetragen	-11.2142
east	-11.2143
▁horse	-11.2145
ancy	-11.2146
▁executive	-11.2147
▁Among	-11.2147
▁begrenzt	-11.215
ew	-11.2151
▁concentrate	-11.2151
▁effiziente	-11.2155
▁Gri	-11.2155
▁bonus	-11.2157
▁zuständig	-11.2158
▁Parameter	-11.2158
▁Grün	-11.216
▁formed	-11.216
▁eventually	-11.216
▁64	-11.2161
▁inspection	-11.2161
▁Dreh	-11.2162
▁scene	-11.2162
▁Problems	-11.2163
▁Hohe	-11.2164
▁zugrunde	-11.2164
▁actively	-11.2164
▁überprüft	-11.2167
51	-11.2167
▁disc	-11.2169
krieg	-11.217
ра	-11.2173
pped	-11.2176
▁Satelliten	-11.2176
ßt	-11.2176
▁inklusive	-11.2178
▁HTML	-11.2178
▁Account	-11.2179
▁Saturday	-11.218
▁surprise	-11.2181
▁elsewhere	-11.2183
▁sichere	-11.2183
41	-11.2184
agentur	-11.2184
blau	-11.2185
▁Modern	-11.219
▁stammen	-11.2192
▁gearbeitet	-11.2192
linien	-11.2193
hersteller	-11.2194
▁Eigen	-11.2195
▁Without	-11.2196
▁tobacco	-11.2197
\	-11.2197
▁solely	-11.2197
▁providers	-11.2199
▁Palm	-11.22
▁organize	-11.2201
▁Erwägung	-11.2203
▁Politiken	-11.2204
nah	-11.2204
▁Balkans	-11.2205
▁principal	-11.2205
▁zukünftige	-11.2207
Na	-11.2208
▁Armee	-11.2209
▁Kampagne	-11.2209
▁ye	-11.2209
gelegt	-11.2209
ami	-11.221
▁Schulen	-11.2215
▁proposing	-11.2216
▁Like	-11.2218
▁starts	-11.2219
▁entwickelte	-11.2219
▁warning	-11.2219
▁geliefert	-11.2219
▁Donnerstag	-11.2219
▁Education	-11.2219
▁brutal	-11.2219
▁ref	-11.2221
▁beteiligen	-11.2222
▁western	-11.2223
▁Cup	-11.2223
▁index	-11.2223
▁Medizin	-11.2225
▁maximal	-11.2228
▁Lobby	-11.2228
▁italienische	-11.223
▁eingehalten	-11.2231
▁fourth	-11.2234
LU	-11.2234
▁locations	-11.2235
▁Abhängigkeit	-11.2236
▁genügend	-11.2239
▁Gute	-11.2244
▁packaging	-11.2244
▁chapter	-11.2247
▁SAP	-11.225
isierten	-11.2251
▁supplies	-11.2253
person	-11.2256
▁hinweg	-11.2256
ela	-11.2258
▁nevertheless	-11.2258
▁vulnerable	-11.2258
▁Sei	-11.2262
▁AND	-11.2262
▁Kontrollen	-11.2267
▁measurement	-11.227
richten	-11.227
▁della	-11.227
▁Cas	-11.227
▁Os	-11.2271
lov	-11.2271
lem	-11.2272
▁leg	-11.2272
non	-11.2273
svorschlag	-11.2277
▁proposes	-11.2277
▁2007.	-11.2279
▁Luxemburg	-11.2281
▁Käufer	-11.2283
▁nine	-11.2283
▁countryside	-11.2286
richtlinie	-11.2287
▁eingestellt	-11.229
▁Nachricht	-11.2291
α	-11.2292
▁verboten	-11.2292
▁Solar	-11.2294
bericht	-11.2294
▁Stoffe	-11.2294
▁Preisen	-11.2295
92	-11.2297
▁nights	-11.2297
▁Pf	-11.2299
spir	-11.2299
▁carrying	-11.23
▁beobachten	-11.23
cio	-11.2301
SK	-11.2302
▁großem	-11.2303
▁Schon	-11.2304
Ba	-11.2305
▁elektronischen	-11.2305
▁SO	-11.2305
fern	-11.2305
▁AS	-11.2309
▁Einkommen	-11.2311
turn	-11.2312
▁birth	-11.2322
▁university	-11.2323
lau	-11.2324
mus	-11.2325
▁wrote	-11.2325
▁Sohn	-11.2327
▁strategischen	-11.2328
PO	-11.2329
▁bislang	-11.2329
gger	-11.233
▁Have	-11.2331
▁nachdrücklich	-11.2334
▁95	-11.2335
▁Entspannung	-11.2337
wel	-11.2338
▁pop	-11.2339
▁Sterne	-11.2339
▁wunderschönen	-11.234
grenzen	-11.234
▁applying	-11.234
▁aktivieren	-11.2341
▁künftige	-11.2341
▁dead	-11.2344
▁gekennzeichnet	-11.2345
▁Bestimmung	-11.2347
lekt	-11.2347
▁iPhone	-11.2348
▁Sonntag	-11.2348
▁Staates	-11.2353
meter	-11.2353
▁Reduzierung	-11.2353
▁shipping	-11.2357
▁Willkommen	-11.2357
▁Tr	-11.2358
▁Anstieg	-11.2358
▁song	-11.2358
ě	-11.2359
▁Mallorca	-11.2359
▁Abkommens	-11.236
strasse	-11.2363
fried	-11.2365
maß	-11.2366
tle	-11.2367
▁erfolgreichen	-11.2369
▁Mat	-11.2371
lern	-11.2371
▁Gene	-11.2372
kunst	-11.2372
▁towns	-11.2373
lea	-11.2375
UN	-11.2375
▁entscheidender	-11.2377
▁Point	-11.2379
sia	-11.2379
▁Deine	-11.2379
▁klaren	-11.2381
ink	-11.2381
▁crew	-11.2382
▁vorrangig	-11.2382
ulator	-11.2383
sagen	-11.2384
▁Stuttgart	-11.2385
▁resource	-11.2386
cept	-11.2387
▁Bru	-11.2389
▁noted	-11.239
▁Glaubwürdigkeit	-11.239
▁shadow	-11.2391
▁generated	-11.2392
▁supplier	-11.2396
OP	-11.2401
phe	-11.2402
▁drinks	-11.2403
▁Louis	-11.2404
▁gets	-11.2404
▁Tourism	-11.2405
▁voluntary	-11.2407
▁talent	-11.2408
▁upper	-11.241
▁Anlass	-11.2411
▁langfristig	-11.2412
▁height	-11.2419
cast	-11.2419
lian	-11.2421
▁Egypt	-11.2422
▁USS	-11.2422
▁700	-11.2423
▁Fünf	-11.2424
▁shock	-11.2425
▁anbelangt	-11.2427
▁rare	-11.2429
▁advise	-11.2429
▁philosophy	-11.243
▁Montag	-11.2431
▁predict	-11.2431
77	-11.2432
▁Allianz	-11.2433
▁lessons	-11.2435
▁Konsequenzen	-11.2435
▁sozialer	-11.2436
▁Belgien	-11.2438
▁verbindet	-11.2438
▁rück	-11.2439
▁Atlantic	-11.244
▁hi	-11.244
37	-11.2442
▁Mad	-11.2445
▁Prä	-11.2447
▁Besides	-11.2447
▁zeit	-11.2447
47	-11.2448
▁einzigartigen	-11.2449
▁standing	-11.2451
▁Hardware	-11.2452
suche	-11.2454
▁logo	-11.2454
▁suggestions	-11.2456
ogen	-11.2456
stellungen	-11.2459
wirtschaftliche	-11.2461
▁geeignete	-11.2461
93	-11.2462
▁Mrd	-11.2462
▁existiert	-11.2462
▁Überlegungen	-11.2462
▁gestattet	-11.2464
▁Job	-11.247
Ö	-11.2474
▁professionals	-11.2476
▁ser	-11.2477
▁gained	-11.2477
ituated	-11.2478
▁Agriculture	-11.2478
▁schicken	-11.248
▁arch	-11.248
rel	-11.2481
▁tre	-11.2483
ý	-11.2484
ño	-11.2485
dro	-11.2486
bas	-11.2487
tis	-11.2487
▁archive	-11.2489
▁toilet	-11.2491
▁überein	-11.2491
▁Urlaubs	-11.2491
▁Darum	-11.2491
pul	-11.2491
▁receiving	-11.2493
▁undermine	-11.2493
▁·	-11.2494
▁Vin	-11.2498
▁satisfaction	-11.2498
▁gewissen	-11.2501
▁taxi	-11.2502
ego	-11.2502
▁module	-11.2502
icht	-11.2507
▁Reinigung	-11.2507
▁Hügel	-11.2507
▁Light	-11.2508
59	-11.2508
▁updates	-11.2511
landschaft	-11.2512
▁upgrade	-11.2515
▁ring	-11.2517
gebracht	-11.2518
▁eigen	-11.2518
▁Next	-11.2518
▁patient	-11.2518
▁theory	-11.2519
Da	-11.252
▁beantworten	-11.2521
▁ACP	-11.2523
▁qualitativ	-11.2525
asse	-11.2525
zusammenarbeiten	-11.2526
▁permit	-11.2527
▁greatly	-11.2527
▁Playa	-11.253
▁erkannt	-11.253
▁teaching	-11.2531
▁Konsultation	-11.2533
▁eventuell	-11.2534
▁strategische	-11.2534
▁observe	-11.2535
▁mat	-11.2535
▁SP	-11.2538
▁Saison	-11.2542
▁Sar	-11.2542
▁MB	-11.2543
▁confirmation	-11.2543
▁breach	-11.2547
Software	-11.2548
▁Ö	-11.2549
▁verteidigen	-11.255
▁EG	-11.2553
▁desk	-11.2557
▁Kollegin	-11.2558
spiele	-11.2558
lis	-11.2559
flug	-11.2561
▁female	-11.2561
bereit	-11.2562
▁mittleren	-11.2563
▁Fle	-11.2564
▁realise	-11.2564
▁delicious	-11.2564
onic	-11.2565
▁machte	-11.2565
▁shares	-11.2567
▁difficulty	-11.2568
▁presents	-11.2569
▁stärkere	-11.257
▁invited	-11.2571
▁Sky	-11.2571
69	-11.2572
jpg	-11.2573
legt	-11.2576
▁Labor	-11.2579
▁suggested	-11.2581
Mi	-11.2583
▁specified	-11.2584
gebieten	-11.2587
▁Arzneimittel	-11.2587
▁transmission	-11.2588
▁roof	-11.2588
▁systematisch	-11.2588
▁Sh	-11.2588
▁Poly	-11.2589
▁Zielen	-11.2589
▁realistisch	-11.2591
▁komp	-11.2592
▁Having	-11.2594
▁berichtet	-11.2594
▁dauert	-11.2597
2003	-11.2597
▁lit	-11.2599
▁Sind	-11.26
▁ships	-11.26
planung	-11.2602
▁untersucht	-11.2602
transport	-11.2602
▁Extra	-11.2603
▁Wiederaufbau	-11.2607
gerecht	-11.261
▁geringer	-11.2611
PE	-11.2611
▁allzu	-11.2612
atoren	-11.2613
vil	-11.2613
▁offiziellen	-11.2614
viel	-11.2615
▁Übrigen	-11.2616
▁Album	-11.2618
▁regarded	-11.2618
hören	-11.2618
▁cur	-11.2619
▁lots	-11.262
stone	-11.2623
▁mental	-11.2623
▁inmitten	-11.2623
▁cancer	-11.2623
schlüsse	-11.2624
▁Sur	-11.2625
▁besucht	-11.2626
89	-11.2628
▁topics	-11.263
▁Augenblick	-11.2631
▁Quellen	-11.2633
▁gemütliche	-11.2634
häuser	-11.2635
itation	-11.2635
PP	-11.2637
▁Nov	-11.2637
gibt	-11.2638
▁banking	-11.2638
egel	-11.2639
mont	-11.2639
▁Potenzial	-11.2639
▁Widerspruch	-11.2639
agon	-11.2639
▁Mass	-11.264
▁Gerade	-11.264
pat	-11.2641
94	-11.2641
▁robust	-11.2642
▁Hin	-11.2644
▁Kontakte	-11.2648
▁Deck	-11.265
ear	-11.265
▁wohnen	-11.2651
▁Verteilung	-11.2651
▁Federation	-11.2655
▁mild	-11.2656
teilen	-11.2657
USS	-11.2661
▁leichter	-11.2665
▁Golden	-11.2665
▁disabled	-11.2665
▁Stiftung	-11.2667
▁segment	-11.267
▁Amerikaner	-11.2671
▁Marke	-11.2671
inen	-11.2673
▁score	-11.2674
▁permitted	-11.2675
spräsident	-11.2675
wood	-11.2675
bruch	-11.2676
▁concepts	-11.2677
83	-11.2678
▁Erlebnis	-11.2682
▁mine	-11.2684
▁Veränderung	-11.2685
▁bewährt	-11.2689
▁interview	-11.2689
▁federal	-11.2692
▁Strasbourg	-11.2695
▁enabling	-11.2695
systemen	-11.2695
▁roads	-11.2695
▁rechtliche	-11.2697
78	-11.2698
▁reich	-11.2699
▁Mol	-11.2699
este	-11.27
INE	-11.27
▁destroyed	-11.2702
print	-11.2703
mä	-11.2704
▁Mängel	-11.2706
▁electric	-11.2707
▁Prozesse	-11.2713
▁Thailand	-11.2713
▁Prüf	-11.2715
▁Cla	-11.2716
▁MS	-11.2718
nehmer	-11.2722
▁betreiben	-11.2722
▁acting	-11.2723
▁Herbst	-11.2724
▁Grünen	-11.2724
verkehrs	-11.2725
baut	-11.2725
▁wi	-11.2725
▁Gerechtigkeit	-11.2727
▁präzise	-11.2727
▁vorzulegen	-11.2727
▁ter	-11.2729
▁erstmals	-11.273
▁Log	-11.273
▁Katalog	-11.273
▁investieren	-11.2731
▁William	-11.2731
▁amazing	-11.2733
▁Vietnam	-11.2733
▁overview	-11.2733
▁execution	-11.2735
▁sal	-11.2736
tract	-11.2736
▁einzusetzen	-11.2737
▁weist	-11.2738
▁Fahrzeuge	-11.2739
▁Länge	-11.2741
▁icon	-11.2745
dienstleistungen	-11.2747
▁sought	-11.2747
▁Miss	-11.2748
▁Make	-11.2748
▁supplement	-11.2749
▁Kandidaten	-11.2752
ül	-11.2754
▁dependent	-11.2758
niveau	-11.2759
▁publication	-11.2762
tec	-11.2763
mil	-11.2763
▁Palma	-11.2764
▁recognize	-11.2767
▁Seele	-11.2767
▁hell	-11.2768
72	-11.2769
▁Gottes	-11.277
▁mussten	-11.2772
▁Spitzen	-11.2772
▁PS	-11.2777
zentren	-11.2779
▁welcoming	-11.2779
▁blieb	-11.2787
ière	-11.279
▁tan	-11.279
felder	-11.2791
▁Mikro	-11.2791
▁savings	-11.2792
▁betrieben	-11.2792
New	-11.2792
zt	-11.2793
▁rising	-11.2794
▁romantic	-11.2795
▁Programmen	-11.2795
▁vorgestellt	-11.2796
city	-11.2796
▁Budgets	-11.2796
▁kostenlose	-11.2799
Version	-11.2801
▁schwach	-11.2805
wege	-11.2807
▁höchst	-11.2808
▁Vorschlags	-11.2809
▁Zuge	-11.2809
Di	-11.2809
▁privat	-11.281
▁Ansichten	-11.281
messe	-11.2811
▁movie	-11.2811
▁Ly	-11.2811
▁twenty	-11.2812
▁gelingt	-11.2812
▁Einstellungen	-11.2812
▁Nein	-11.2812
finden	-11.2815
▁Belastung	-11.2815
▁football	-11.2815
mt	-11.2816
▁Klasse	-11.2818
aki	-11.2819
▁Professional	-11.282
FT	-11.2822
eine	-11.2822
73	-11.2822
▁Wählen	-11.2823
▁obliged	-11.2824
▁afford	-11.2824
HU	-11.2825
▁manual	-11.2825
▁breiten	-11.2826
bir	-11.2827
▁Resolution	-11.2828
RS	-11.2829
▁ersetzen	-11.2829
▁Culture	-11.283
denken	-11.2831
▁theatre	-11.2833
mis	-11.2835
76	-11.2837
▁exports	-11.2837
▁significance	-11.2838
schreiben	-11.2841
▁killed	-11.2842
▁Beide	-11.2843
▁bekommt	-11.2844
▁prospect	-11.2847
▁gefallen	-11.2847
▁Gehminuten	-11.2847
▁olive	-11.2848
uell	-11.2848
▁tennis	-11.2849
▁Quality	-11.2852
▁farming	-11.2853
Frühstücksbuffet	-11.2854
▁Praktiken	-11.2854
▁Existenz	-11.2856
▁unforgettable	-11.2856
▁unterscheiden	-11.2856
wunder	-11.2856
▁composition	-11.2857
▁engagiert	-11.2859
▁aufgebaut	-11.2859
▁exclusion	-11.2862
▁Plus	-11.2865
rot	-11.2865
▁prosperity	-11.2865
▁Unterkünfte	-11.2865
▁Islands	-11.2866
▁specialist	-11.2866
▁Positionen	-11.2868
oren	-11.2869
▁tritt	-11.2869
schalten	-11.2869
spräsidentschaft	-11.287
▁effizienter	-11.2872
▁erwähnen	-11.2874
▁underline	-11.2876
cen	-11.2878
▁Gerät	-11.288
▁forests	-11.2884
▁Katastrophe	-11.2885
kapital	-11.2888
▁Ablehnung	-11.2892
▁fer	-11.2894
regelung	-11.2896
smittel	-11.2896
▁reservations	-11.2896
▁Rü	-11.2896
▁.....	-11.2897
▁konkret	-11.2897
▁hierbei	-11.2898
▁Richard	-11.2898
IE	-11.29
▁CE	-11.2901
▁colours	-11.2901
▁Kanada	-11.2901
ausschuss	-11.2903
300	-11.2903
▁heading	-11.2905
▁staatliche	-11.2905
▁ländliche	-11.2906
▁societies	-11.291
view	-11.2911
▁wireless	-11.2911
▁villages	-11.2915
С	-11.2915
▁umfassend	-11.2918
▁Family	-11.2919
▁renoviert	-11.2919
ographische	-11.292
market	-11.2921
iro	-11.2921
▁begleitet	-11.2922
▁Eurozone	-11.2922
netze	-11.2922
HA	-11.2923
▁PSE	-11.2924
▁attempts	-11.2927
stitu	-11.293
▁Lind	-11.293
▁versichern	-11.293
space	-11.2932
▁arguments	-11.2933
▁Socialist	-11.2933
▁harmonisation	-11.2933
▁Finland	-11.2934
▁portfolio	-11.2935
▁Heizung	-11.2937
shilfe	-11.2938
▁{	-11.2939
▁Abfall	-11.2939
▁Frist	-11.2941
▁renowned	-11.2942
friendly	-11.2945
rier	-11.2946
▁villa	-11.2946
▁Guests	-11.2946
▁zukünftigen	-11.2947
▁instructions	-11.2947
▁doors	-11.2948
▁stellte	-11.2948
▁superior	-11.2948
▁Trotzdem	-11.2952
▁hospital	-11.2953
▁Fra	-11.2953
ject	-11.2953
▁registriert	-11.2954
▁gründlich	-11.2954
▁missing	-11.2954
▁richtet	-11.2956
▁Based	-11.2956
▁Geburt	-11.2957
▁Zürich	-11.2957
▁stake	-11.2958
▁directory	-11.2958
▁hundert	-11.2958
▁2008,	-11.2958
ario	-11.2961
▁Key	-11.2963
tschaftswachstum	-11.2963
lio	-11.2963
Beifall	-11.2963
▁approve	-11.2965
imo	-11.2969
▁Kabel	-11.2969
▁hervorgehoben	-11.297
▁Gelder	-11.297
▁Print	-11.297
▁unterstreichen	-11.2972
▁Vorausschau	-11.2973
▁Dafür	-11.2974
▁в	-11.2975
▁Bars	-11.2975
▁herum	-11.2977
hang	-11.2977
▁einbezogen	-11.2978
wal	-11.2979
▁recall	-11.298
▁wheel	-11.298
tragen	-11.2982
▁paying	-11.2982
▁Alltag	-11.2983
▁justified	-11.2984
wei	-11.2984
▁Wissens	-11.2984
▁geehrte	-11.2985
▁deswegen	-11.2986
nik	-11.2986
▁behaupten	-11.2987
▁string	-11.2988
NET	-11.299
▁Beste	-11.2991
▁39	-11.2992
▁unterliegen	-11.2996
▁fördert	-11.2996
yer	-11.2998
▁suffered	-11.2999
uz	-11.3
It	-11.3003
▁Bonus	-11.3004
▁Asian	-11.3007
▁continuous	-11.3008
bü	-11.3008
▁Planeten	-11.3008
▁tank	-11.301
▁cleaning	-11.3012
▁Secretary	-11.3012
▁proceedings	-11.3012
szeit	-11.3012
lesen	-11.3012
▁enterprise	-11.3013
orte	-11.3014
▁getragen	-11.3017
▁Line	-11.3017
▁konfrontiert	-11.302
▁Schnee	-11.3021
▁novel	-11.3022
▁kontaktieren	-11.3023
▁welcomed	-11.3024
▁sink	-11.3024
rac	-11.3024
▁Verkaufs	-11.3026
▁(4	-11.3028
▁liked	-11.3029
ail	-11.3029
▁indicate	-11.303
▁LateRooms	-11.3032
▁Micro	-11.3033
▁negotiating	-11.3035
mber	-11.3039
▁skiing	-11.3042
▁Sach	-11.3042
▁Auditors	-11.3042
wissenschaftlich	-11.3043
▁spät	-11.3044
llo	-11.3044
▁politically	-11.3045
▁Press	-11.3045
▁bet	-11.3046
▁Besitz	-11.3051
▁Volkswirtschaft	-11.3053
▁supervision	-11.3054
▁rely	-11.3054
▁legally	-11.3055
▁remained	-11.3059
▁ecological	-11.306
ñ	-11.306
▁tree	-11.3061
▁Umsatz	-11.3061
▁Ring	-11.3063
initiative	-11.3066
▁natürliche	-11.3068
EM	-11.3074
cra	-11.3077
▁gesch	-11.3078
▁faith	-11.308
▁covering	-11.308
▁00	-11.3081
▁habit	-11.3082
▁supposed	-11.3083
flo	-11.3083
▁44	-11.3088
▁mitteilen	-11.3089
▁Panorama	-11.3093
▁könnt	-11.3093
▁Event	-11.3093
▁everybody	-11.3094
schließen	-11.3094
uv	-11.3096
▁fabric	-11.3096
ough	-11.3097
VA	-11.3098
▁Öffnung	-11.3102
▁commission	-11.3102
▁integrate	-11.3104
fil	-11.3105
▁erhoben	-11.3105
▁quote	-11.3105
▁geraten	-11.3105
▁Gor	-11.3106
▁01	-11.3106
nas	-11.3107
▁rank	-11.3107
▁Bon	-11.3107
▁Haushaltsplan	-11.3109
▁Head	-11.311
▁Pl	-11.3114
▁Freizügigkeit	-11.3114
▁complicated	-11.3114
▁pain	-11.3114
▁Alles	-11.3114
▁allocated	-11.3115
▁Ebenen	-11.3116
▁king	-11.3117
wärts	-11.3117
▁Koch	-11.3117
küste	-11.3118
▁Heil	-11.3119
holz	-11.3119
ters	-11.312
▁contributed	-11.3123
ierende	-11.3123
▁Location	-11.3123
▁Passwort	-11.3124
▁Kulturen	-11.3124
▁Dor	-11.3126
Bericht	-11.3127
fällen	-11.3128
▁plays	-11.3129
▁Rein	-11.3131
dies	-11.3134
▁CA	-11.3135
▁Genießen	-11.3136
▁Ali	-11.3136
▁Tar	-11.3139
▁vorgesehenen	-11.314
▁surely	-11.3141
▁reveal	-11.3141
▁combine	-11.3141
schlagen	-11.3141
▁Perspektive	-11.3142
▁Venice	-11.3142
▁angebracht	-11.3143
▁preventing	-11.3144
▁clarify	-11.3145
stal	-11.3145
46	-11.3146
▁Joseph	-11.3148
▁Rückkehr	-11.3148
▁kombiniert	-11.3151
▁sharing	-11.3151
▁progressive	-11.3151
Vertrag	-11.3152
▁Through	-11.3153
▁Tätigkeiten	-11.3154
energie	-11.3155
▁Portal	-11.3155
▁directed	-11.3155
power	-11.3159
bia	-11.316
▁forthcoming	-11.316
▁Sir	-11.3161
cial	-11.3163
▁Gefängnis	-11.3163
UL	-11.3164
▁abstimmen	-11.3164
steht	-11.3166
lassung	-11.3169
▁amenities	-11.3169
▁31.	-11.3169
▁kleines	-11.317
kus	-11.3171
suchen	-11.3174
▁hospitality	-11.3174
▁looked	-11.3175
▁hardly	-11.3176
ländern	-11.3177
▁Finanzkrise	-11.3179
▁bisherigen	-11.318
▁verfügbaren	-11.3182
sign	-11.3182
▁Australia	-11.3184
▁Kong	-11.3186
▁imports	-11.3186
ald	-11.3186
rich	-11.3188
▁Leiter	-11.3189
▁Hill	-11.319
▁parliament	-11.319
▁Kriminalität	-11.319
projekte	-11.3191
▁sensor	-11.3192
▁refers	-11.3192
streit	-11.3193
▁push	-11.3194
stat	-11.3195
tial	-11.3196
ebene	-11.3196
▁ceiling	-11.3197
KE	-11.3197
ausschusses	-11.3197
▁anschließen	-11.3199
▁Berge	-11.3199
▁geregelt	-11.32
▁Chile	-11.32
▁illegalen	-11.3201
▁(*	-11.3201
▁geographical	-11.3201
tiv	-11.3201
▁explained	-11.3203
zubringen	-11.3205
▁erfreut	-11.3206
zustellen	-11.3206
plo	-11.3208
rom	-11.3208
▁investigation	-11.3211
▁Vel	-11.3212
▁Ten	-11.3213
▁elegante	-11.3214
▁Entfernung	-11.3215
▁Opera	-11.3215
▁Nigeria	-11.3215
▁emp	-11.3216
▁Kreuz	-11.3217
▁ports	-11.3218
▁stammt	-11.3218
▁Arbeiter	-11.322
▁appointment	-11.322
▁firmly	-11.322
▁wellness	-11.322
▁Nachbarschaft	-11.3222
-3	-11.3225
▁Stability	-11.3226
▁Videos	-11.3227
▁lieber	-11.3227
▁halb	-11.3227
▁Pflege	-11.3229
▁Kriegs	-11.323
▁native	-11.3231
▁compact	-11.3232
▁enabled	-11.3232
ography	-11.3233
▁angewendet	-11.3234
▁Fremdenverkehr	-11.3237
geschlagen	-11.3238
▁Millennium	-11.324
musik	-11.324
TH	-11.3243
▁Stärke	-11.3243
▁gro	-11.3244
▁Weiteren	-11.3245
-4	-11.3247
pel	-11.3249
sko	-11.3251
ied	-11.3254
▁Dia	-11.3257
sz	-11.3258
▁erteilt	-11.3258
▁Sachen	-11.3259
svertrag	-11.3264
▁UNESCO	-11.3264
▁teile	-11.3265
▁vorgeschlagene	-11.3265
sfreiheit	-11.3267
▁originally	-11.3271
▁gültig	-11.3271
▁programming	-11.3272
▁labor	-11.3273
größe	-11.3274
gestaltung	-11.3274
▁earn	-11.3274
▁Betten	-11.3276
▁43	-11.3276
▁Sel	-11.3276
▁Bekannt	-11.3277
▁Fahrer	-11.3279
▁parameters	-11.3279
▁complement	-11.3279
▁Abschaffung	-11.328
sum	-11.3281
▁vorliegende	-11.3281
gio	-11.3282
▁eingeleitet	-11.3282
▁tower	-11.3283
artikel	-11.3284
▁introducing	-11.3286
▁personenbezogen	-11.3286
▁chat	-11.3287
▁ordinary	-11.3289
▁kontrollieren	-11.3289
▁Schatten	-11.329
▁Should	-11.3292
▁recover	-11.3292
▁ergibt	-11.3293
▁Vereinfachung	-11.3295
modell	-11.3296
▁Civil	-11.3299
▁Kle	-11.3301
▁herunterladen	-11.3302
wart	-11.3303
▁unzureichend	-11.3304
ALE	-11.3306
▁recognized	-11.3306
▁integrierte	-11.3309
▁restore	-11.3315
smoking	-11.3315
▁aktualisiert	-11.3317
▁equivalent	-11.3317
▁Eingang	-11.3318
▁Hong	-11.332
▁Schulung	-11.332
54	-11.3321
pic	-11.3321
block	-11.3322
miss	-11.3322
▁Schwer	-11.3322
▁Verfasser	-11.3323
▁wirkt	-11.3323
▁Energien	-11.3323
▁EX	-11.3324
tieren	-11.3324
▁escape	-11.3325
▁smooth	-11.3326
▁hervorragend	-11.3326
▁dankbar	-11.3327
gewicht	-11.333
play	-11.333
▁geplant	-11.333
▁XP	-11.3331
▁Bereitschaft	-11.3332
▁Abendessen	-11.3333
▁dispute	-11.3333
▁trips	-11.3335
▁attract	-11.3336
▁preserve	-11.3337
▁prop	-11.3339
▁Verteidigungs	-11.334
rated	-11.334
▁sight	-11.3341
▁Geneva	-11.3346
▁ergänzt	-11.3348
!!!	-11.335
▁Berliner	-11.3352
▁fans	-11.3353
▁Getränke	-11.3353
▁Konflikte	-11.3354
▁Empfang	-11.3355
▁gefragt	-11.3357
trieb	-11.3358
▁Parkplätze	-11.3358
▁FA	-11.3358
▁productivity	-11.3358
sprachen	-11.3358
▁characters	-11.3361
▁organic	-11.3363
▁Dritten	-11.3365
▁angenehm	-11.3366
▁behoben	-11.3367
aktiv	-11.3367
gekommen	-11.3368
▁Wichtig	-11.3369
▁student	-11.337
fenster	-11.3371
freie	-11.3372
▁Dokumentation	-11.3372
zugehen	-11.3372
▁Kit	-11.3376
show	-11.3377
▁Serbia	-11.3379
▁geo	-11.338
▁Gemeinsame	-11.3381
▁Volkes	-11.3382
▁teams	-11.3383
▁ga	-11.3383
▁Vier	-11.3384
▁Temperatur	-11.3384
▁barriers	-11.3385
▁schlagen	-11.3386
▁offizielle	-11.339
wendung	-11.3392
▁Kirchen	-11.3393
lager	-11.3394
ished	-11.3395
▁Hindernisse	-11.3396
▁Pakete	-11.3397
▁Area	-11.3398
▁hill	-11.3399
▁präsentieren	-11.3399
President	-11.34
▁effektive	-11.3403
▁Corporate	-11.3404
einheit	-11.3404
▁sky	-11.3406
▁Flu	-11.3406
▁rain	-11.3406
▁showed	-11.3406
▁collected	-11.3407
host	-11.3408
▁solches	-11.3409
▁clubs	-11.3409
▁EZB	-11.341
▁Volksgesundheit	-11.341
▁internen	-11.3411
▁accurate	-11.3416
▁festzulegen	-11.3417
▁anzuzeigen	-11.342
▁vessels	-11.342
▁sogenannten	-11.3424
▁Modelle	-11.3425
▁incident	-11.3426
▁Euch	-11.3426
▁Textil	-11.3428
▁saved	-11.3429
▁sustainability	-11.3429
ency	-11.343
tun	-11.343
▁Lernen	-11.3431
sprinzip	-11.3432
▁Wärme	-11.3432
▁Bor	-11.3433
▁Nachbarn	-11.3438
▁Premierminister	-11.3439
▁functionality	-11.3441
▁Alb	-11.3442
▁obstacles	-11.3446
trans	-11.3446
▁NGOs	-11.3447
▁museums	-11.3447
▁cells	-11.3447
▁Tanz	-11.3448
▁Katastrophen	-11.3449
▁läßt	-11.345
▁audience	-11.3451
▁Cur	-11.3452
▁anhand	-11.3452
▁Großteil	-11.3452
▁Glo	-11.3453
▁soul	-11.3456
▁folder	-11.3456
▁Does	-11.3457
Ga	-11.3457
▁Reisen	-11.3457
alen	-11.3457
▁whereas	-11.3459
Ho	-11.3459
▁Häuser	-11.3459
▁leaves	-11.3459
liegen	-11.346
dri	-11.346
förderung	-11.346
▁Regierungschefs	-11.3464
▁verdienen	-11.3464
▁Dokumenten	-11.3465
▁decade	-11.3466
ament	-11.3467
▁militärischen	-11.3468
alle	-11.3468
▁turning	-11.3468
sie	-11.347
▁Suiten	-11.347
▁ME	-11.347
No	-11.3471
elli	-11.3476
▁exact	-11.3478
▁Block	-11.3479
▁collapse	-11.348
▁rev	-11.348
atic	-11.3481
▁Schnell	-11.3482
▁absurd	-11.3483
▁Vista	-11.3483
▁classes	-11.3486
▁gebeten	-11.3489
▁besonderer	-11.349
▁remarks	-11.3492
▁severe	-11.3492
▁Christmas	-11.3492
▁permission	-11.3493
▁Sant	-11.3493
IX	-11.3494
▁Übergang	-11.3494
vat	-11.3496
holen	-11.3499
▁Börse	-11.35
▁songs	-11.35
tenden	-11.35
▁Nachhaltigkeit	-11.3502
▁universities	-11.3502
▁hingegen	-11.3503
▁Beruf	-11.3503
▁Erhaltung	-11.3504
▁reflected	-11.351
▁penalty	-11.3511
▁Höchst	-11.3514
▁eignet	-11.3514
hard	-11.3515
▁gestärkt	-11.3517
▁Konfiguration	-11.3518
▁mill	-11.3519
born	-11.3524
▁angekündigt	-11.3524
▁beabsichtigt	-11.3524
▁Präsentation	-11.3524
▁indirekt	-11.3525
▁reward	-11.3525
▁subjects	-11.3526
museum	-11.3528
branche	-11.353
▁Tur	-11.3531
▁NO	-11.3532
▁froh	-11.3534
BS	-11.3535
▁dignity	-11.3536
2009	-11.3537
▁bomb	-11.3541
▁Inflation	-11.3543
▁assess	-11.3543
▁enhanced	-11.3544
▁Internationale	-11.3546
▁hilfreich	-11.3546
▁befasst	-11.3546
▁CAP	-11.3546
ät	-11.3549
anti	-11.3549
rb	-11.3552
ô	-11.3552
▁considerably	-11.3554
▁travelling	-11.3557
▁ausländische	-11.3558
▁gewähren	-11.3559
▁restructuring	-11.3562
2,	-11.3562
gezogen	-11.3565
▁withdraw	-11.3565
▁jetzigen	-11.3567
▁Gegner	-11.3568
▁kn	-11.3569
▁momentan	-11.3569
gul	-11.3571
Staaten	-11.3572
▁Safe	-11.3572
rust	-11.3574
▁regardless	-11.358
gung	-11.358
sson	-11.3581
wan	-11.3581
RM	-11.3585
▁Fer	-11.3587
▁errors	-11.3588
▁zieht	-11.359
▁fees	-11.359
▁sharp	-11.3591
▁united	-11.3593
▁dramatisch	-11.3595
▁modules	-11.3599
▁größeres	-11.36
▁Situationen	-11.3601
▁sounds	-11.3602
zieren	-11.3604
▁stabil	-11.3604
claim	-11.3606
volle	-11.3607
auto	-11.3609
club	-11.3609
▁ehrlich	-11.361
▁Betreiber	-11.361
▁scheinen	-11.361
turm	-11.3611
lebt	-11.3611
serie	-11.3613
▁euros	-11.3614
▁undoubtedly	-11.3616
▁stra	-11.3616
▁Lohn	-11.3617
▁Domain	-11.3617
▁acceptance	-11.3617
▁1960	-11.362
▁Revision	-11.3621
rou	-11.3622
▁Taxi	-11.3622
▁till	-11.3624
▁labelling	-11.3627
▁internationally	-11.3628
uni	-11.3629
▁amtierende	-11.3632
▁infolge	-11.3633
aria	-11.3633
▁Designer	-11.3636
aging	-11.3638
strom	-11.3638
▁exploitation	-11.3641
boden	-11.3641
▁Hauptbahnhof	-11.3642
▁Ausrüstung	-11.3642
▁Dritte	-11.3642
▁DA	-11.3644
▁verletzt	-11.3644
▁portal	-11.3646
▁adapted	-11.3646
EE	-11.3647
▁schlechte	-11.3648
reform	-11.3651
▁worst	-11.3652
▁Verbrauch	-11.3653
▁rechten	-11.3654
▁Beteiligten	-11.3654
▁Straßburg	-11.3654
58	-11.3656
▁tab	-11.3656
▁branch	-11.3657
▁produzieren	-11.3658
▁Ägypten	-11.3661
▁pretty	-11.3661
▁Spring	-11.3663
uelle	-11.3664
▁Islamic	-11.3664
▁Ratifizierung	-11.3666
assi	-11.3668
his	-11.3671
91	-11.3673
▁Universal	-11.3674
DP	-11.3675
handlung	-11.3675
▁sole	-11.3676
▁Fang	-11.3677
▁cuts	-11.3677
BC	-11.3677
ash	-11.3677
▁formuliert	-11.3677
istisch	-11.3679
▁Laut	-11.3681
▁reconstruction	-11.3681
dol	-11.3681
horn	-11.3683
▁Muster	-11.3683
▁Flüchtlinge	-11.3683
klasse	-11.3684
▁hervorragenden	-11.3685
behandlung	-11.3688
UNG	-11.3688
▁с	-11.369
stehenden	-11.3692
▁applicant	-11.3693
una	-11.3696
profil	-11.3696
▁reaching	-11.3697
▁beschränken	-11.37
▁zurückzuführen	-11.37
eau	-11.3701
Auf	-11.3701
▁Investitions	-11.3702
▁Binnenmarktes	-11.3706
tende	-11.3706
▁25.	-11.3706
▁excluded	-11.3707
▁besorgt	-11.3709
geld	-11.3711
▁thermal	-11.3711
suite	-11.3711
▁optional	-11.3714
▁violations	-11.3715
▁consulting	-11.3716
▁shuttle	-11.3716
▁Nero	-11.3717
▁managing	-11.3718
▁außen	-11.3718
▁indication	-11.3719
märkte	-11.3721
▁erarbeitet	-11.3722
anischen	-11.3722
▁Fremd	-11.3722
▁filled	-11.3723
▁schw	-11.3723
▁Gate	-11.3725
▁enthaltenen	-11.3727
All	-11.3728
▁panel	-11.3729
▁ministers	-11.3732
länge	-11.3732
▁Innenstadt	-11.3732
▁hohem	-11.3733
▁Ursachen	-11.3733
▁Faktor	-11.3733
▁transferred	-11.3733
▁Verfahrens	-11.3734
▁superb	-11.3738
▁subsequent	-11.3738
▁Op	-11.3738
▁Gay	-11.3739
▁sentence	-11.374
höhe	-11.3741
▁Mauer	-11.3741
ART	-11.3741
▁College	-11.3742
▁Richter	-11.3742
dokument	-11.3745
▁Entwickler	-11.3745
▁Bildschirm	-11.3745
▁audit	-11.3746
▁bekannte	-11.3746
▁Immer	-11.3748
▁existieren	-11.3749
ifying	-11.375
▁soil	-11.3751
▁Märkten	-11.3752
▁Serbien	-11.3752
zehn	-11.3754
і	-11.3754
ui	-11.3755
▁Captain	-11.3756
iten	-11.376
▁lists	-11.376
▁gewünschten	-11.376
▁freedoms	-11.376
ont	-11.3761
▁2006.	-11.3762
▁Befehl	-11.3764
haben	-11.3764
▁disasters	-11.3764
▁mehrfach	-11.3765
▁analog	-11.3767
▁licence	-11.3767
▁berühmte	-11.3768
▁DI	-11.3769
▁Anmeldung	-11.3769
▁Industry	-11.3771
▁restored	-11.3771
▁tension	-11.3776
polis	-11.3778
klick	-11.378
▁hart	-11.3782
▁Rechner	-11.3782
▁mittel	-11.3782
spekt	-11.3783
▁Protocol	-11.3784
änderung	-11.3784
▁ausführlich	-11.3784
lav	-11.3788
geführt	-11.3789
MC	-11.379
▁externen	-11.3793
ison	-11.3793
▁concentration	-11.3793
▁Valencia	-11.3794
▁Lauf	-11.3794
phi	-11.3795
▁movements	-11.3797
bil	-11.3797
▁Vorstand	-11.3799
▁periods	-11.3799
▁losses	-11.38
MB	-11.3802
▁Wolf	-11.3802
elf	-11.3803
▁medizinische	-11.3803
▁Cho	-11.3804
scheid	-11.3804
▁nutzt	-11.3804
holt	-11.3804
▁§	-11.3805
▁Cross	-11.3806
▁bedanken	-11.3806
▁Staff	-11.3807
▁videos	-11.3807
▁unabhängigen	-11.3807
▁22.	-11.3812
▁Academy	-11.3813
▁tested	-11.3813
▁tag	-11.3813
▁Chef	-11.3813
▁Alkohol	-11.3816
▁supplied	-11.3816
ivity	-11.3816
▁abschließend	-11.3816
7%	-11.3817
▁Syria	-11.3817
▁Ker	-11.3818
gest	-11.3823
▁sponsor	-11.3824
unch	-11.3824
SCH	-11.3824
▁Benutzung	-11.3825
ña	-11.3825
vari	-11.3825
▁none	-11.3825
bedarf	-11.3827
▁schwierige	-11.3829
▁Grundlagen	-11.3829
Mitgliedstaaten	-11.383
vig	-11.3832
▁Organe	-11.3833
▁ruhige	-11.3835
&#160;	-11.3836
▁sovereignty	-11.3836
▁creature	-11.3839
▁cre	-11.3841
▁Bezeichnung	-11.3843
▁courage	-11.3845
▁timetable	-11.3848
▁Alm	-11.385
▁Mexiko	-11.3852
▁Geschenk	-11.3852
▁generations	-11.3853
▁effizient	-11.3855
74	-11.3855
▁speichern	-11.3856
▁signature	-11.3856
▁picturesque	-11.386
Kom	-11.3861
▁Marco	-11.3861
haften	-11.3863
к	-11.3863
▁2007,	-11.3864
▁solar	-11.3866
wort	-11.3867
▁Slovenia	-11.3869
▁erweitern	-11.3869
iser	-11.3871
▁Datum	-11.3872
▁ir	-11.3873
▁vereint	-11.3873
runde	-11.3874
▁Erzeuger	-11.3875
▁wonach	-11.3878
▁stocks	-11.3879
session	-11.3881
speicher	-11.3881
▁reagiert	-11.3882
56	-11.3882
chel	-11.3884
▁anywhere	-11.3884
onym	-11.3884
motor	-11.3886
rá	-11.3888
▁unentgeltlich	-11.3888
▁Hard	-11.389
▁selling	-11.389
familie	-11.3891
▁Generationen	-11.3891
pers	-11.3894
▁bay	-11.3895
▁reliability	-11.3895
▁pull	-11.3896
▁intensiv	-11.3896
▁Select	-11.3896
▁Samstag	-11.3898
▁Betriebe	-11.3899
▁Summe	-11.3902
▁überaus	-11.3902
rag	-11.3904
zunehmen	-11.3904
kom	-11.3904
▁Formulierung	-11.3905
▁wunderschöne	-11.3907
▁varied	-11.391
▁günstig	-11.391
▁undertaken	-11.3911
▁reputation	-11.3911
▁Versand	-11.3911
▁transform	-11.3913
▁column	-11.3915
▁wahren	-11.3915
▁sin	-11.3915
▁Speisen	-11.3916
▁Museen	-11.3919
such	-11.3919
▁adult	-11.3919
▁freely	-11.3924
▁genauer	-11.3924
▁Arena	-11.3926
▁stuff	-11.3928
institut	-11.3929
▁Betreuung	-11.3934
▁Dam	-11.3935
▁ergänzen	-11.3935
▁verwende	-11.3937
▁Erd	-11.394
▁learned	-11.394
▁fishermen	-11.3941
▁vergleichbar	-11.3941
server	-11.3942
▁Versionen	-11.3943
▁plain	-11.3943
▁Maschine	-11.3944
gebäude	-11.3944
▁Konstruktion	-11.3946
gesch	-11.3946
▁verständlich	-11.3947
▁Publikum	-11.3947
frag	-11.3948
▁hoffentlich	-11.3948
-/	-11.3948
▁umsetzen	-11.3949
▁erklärte	-11.3949
▁panoramic	-11.3951
mini	-11.3951
▁refuse	-11.3952
esten	-11.3952
▁Daniel	-11.3953
▁sights	-11.3954
▁eingeschränkt	-11.3954
▁mirror	-11.3954
▁Basel	-11.3954
▁eliminate	-11.3954
freiheit	-11.3957
personal	-11.3957
▁stretch	-11.3958
▁Schreiben	-11.3958
▁Logo	-11.3959
▁trends	-11.3961
▁Performance	-11.3962
▁Lib	-11.3962
▁restrict	-11.3962
▁strengthened	-11.3963
seiten	-11.3964
eta	-11.3965
▁Tee	-11.3965
▁Bestätigung	-11.3971
▁Florenz	-11.3971
▁Prof	-11.3971
▁einzuführen	-11.3972
▁sections	-11.3972
▁Residence	-11.3974
ily	-11.3975
▁koordiniert	-11.3977
▁zeichnet	-11.3977
▁ensures	-11.3977
▁tables	-11.3977
▁Unterricht	-11.3979
▁Betrug	-11.398
▁prevail	-11.3981
bereiche	-11.3981
▁festgelegten	-11.3983
▁Small	-11.3984
▁Möbel	-11.3984
▁cra	-11.3984
▁Fuss	-11.3986
leit	-11.3987
bung	-11.3988
▁ECB	-11.399
▁murder	-11.3991
▁peak	-11.3994
▁Kreditkarte	-11.3996
verkauf	-11.3996
Commerce	-11.3997
▁everywhere	-11.3998
▁genaue	-11.3999
▁Communication	-11.4001
▁partition	-11.4001
▁normalerweise	-11.4005
▁Modernisierung	-11.4008
kä	-11.4008
▁Order	-11.4011
ifi	-11.4012
▁coordinated	-11.4012
▁Nico	-11.4013
▁pas	-11.4015
▁23.	-11.4016
ckel	-11.4017
▁Kam	-11.4017
▁minister	-11.4018
▁Halb	-11.4018
wirken	-11.402
▁Yu	-11.4023
▁stattfindet	-11.4024
Ex	-11.4025
▁wünsche	-11.4025
regionen	-11.4026
▁Felder	-11.4026
▁Wartung	-11.4027
ø	-11.4027
▁tele	-11.4027
▁Belgian	-11.403
▁Chat	-11.4032
▁fax	-11.4033
▁Referenz	-11.4034
▁kernel	-11.4034
hö	-11.4035
▁overlooking	-11.4035
▁reflects	-11.4036
town	-11.4036
▁verringert	-11.404
▁Finnland	-11.4042
▁stars	-11.4043
▁Appartement	-11.4043
nbsp	-11.4044
▁Cer	-11.4044
▁antworten	-11.4044
▁CHF	-11.4046
seitig	-11.4047
▁behauptet	-11.4047
cular	-11.4048
▁laufenden	-11.4048
▁externe	-11.4049
leiten	-11.405
▁scar	-11.4052
▁Allah	-11.4054
▁hierfür	-11.4055
ESS	-11.4056
▁compete	-11.4056
▁erfordern	-11.4057
itis	-11.4062
▁typisch	-11.4063
▁Bade	-11.4063
▁Fundamental	-11.4065
▁chinesische	-11.4065
▁Anders	-11.4067
▁steigen	-11.4068
▁bearing	-11.4069
▁bewältigen	-11.4071
faktor	-11.4071
essel	-11.4072
▁underground	-11.4073
▁Erwachsene	-11.4075
`	-11.4075
▁Palästinenser	-11.4081
▁lived	-11.4081
▁Ausblick	-11.4083
▁sw	-11.4084
map	-11.4084
▁Wikitravel	-11.4084
▁Branchen	-11.4085
▁neighbouring	-11.4087
▁necessarily	-11.4087
ania	-11.4088
▁anniversary	-11.4091
rain	-11.4091
▁kg	-11.4092
country	-11.4093
ffi	-11.4093
fuhr	-11.4093
▁Sen	-11.4093
▁SD	-11.4094
beauftragten	-11.4095
▁Fernsehen	-11.4096
▁vornehmen	-11.4098
tical	-11.4098
▁Dra	-11.41
▁saving	-11.41
kern	-11.4101
▁zugelassen	-11.4102
▁Americans	-11.4102
▁Rang	-11.4103
ò	-11.4104
▁rating	-11.4107
halle	-11.4107
NO	-11.4107
▁ausgewählt	-11.4108
▁hills	-11.4108
▁Minute	-11.4109
werten	-11.4109
▁rufen	-11.4112
▁cat	-11.4114
▁wachsende	-11.4115
▁ill	-11.4115
▁AD	-11.4116
füll	-11.4116
hafte	-11.4117
▁Zahlungen	-11.412
▁Friendly	-11.4121
▁Überblick	-11.4122
pflicht	-11.4122
▁Gerichts	-11.4124
sendung	-11.4126
▁Vertrieb	-11.4127
gal	-11.4127
▁briefly	-11.4128
▁judgment	-11.4128
▁stunning	-11.4128
▁Would	-11.4128
▁Warcraft	-11.4128
0%	-11.4132
▁Branche	-11.4132
▁heißen	-11.4133
▁engage	-11.4134
Ad	-11.4135
ción	-11.4138
▁theme	-11.4139
▁2006,	-11.414
▁geringe	-11.4141
▁Ombudsman	-11.4141
▁sichergestellt	-11.4142
▁beruhen	-11.4143
dding	-11.4144
sentwurf	-11.4144
▁Register	-11.4145
▁deeply	-11.4145
▁bauen	-11.4146
▁Phänomen	-11.4148
▁mittlerweile	-11.4151
▁mittlere	-11.4152
▁begründet	-11.4153
▁detaillierte	-11.4154
kirche	-11.4156
▁bedroht	-11.4158
▁render	-11.4158
▁Doha	-11.4159
▁Versorgung	-11.416
▁Meines	-11.4163
▁pod	-11.4164
▁witness	-11.4166
▁Lateinamerika	-11.4168
mitteln	-11.4168
lumin	-11.417
▁Saddam	-11.4171
inner	-11.4172
rik	-11.4172
▁Aktiv	-11.4173
▁gedacht	-11.4175
▁assembly	-11.4175
▁meal	-11.4175
stream	-11.4176
SD	-11.4178
▁cancellation	-11.4178
aw	-11.418
▁niederländische	-11.418
▁kompliziert	-11.4181
▁berechnet	-11.4182
▁Prince	-11.4185
enberg	-11.4189
▁determination	-11.4189
phrase	-11.4189
rischen	-11.4189
▁percentage	-11.419
▁Objekte	-11.4191
▁Ferienwohnung	-11.4192
screen	-11.4193
ndern	-11.4194
▁mächtig	-11.4197
▁checks	-11.4198
tätig	-11.4198
▁selben	-11.4198
zulegen	-11.42
BI	-11.42
▁Händler	-11.4202
▁frühen	-11.4203
▁listings	-11.4204
▁convey	-11.4205
▁Denmark	-11.4206
skosten	-11.4207
▁Pal	-11.4209
▁wave	-11.4211
SO	-11.4213
▁Chinas	-11.4215
▁Denken	-11.4216
▁terminal	-11.4216
▁Viel	-11.4218
▁überwinden	-11.4219
▁hiking	-11.4219
ved	-11.4219
Zu	-11.4219
▁Schlag	-11.422
▁derzeitige	-11.4227
▁einmalige	-11.4227
dler	-11.4228
fla	-11.4228
▁Arbeitgeber	-11.4231
Prozess	-11.4231
▁promise	-11.4232
▁selber	-11.4232
gängig	-11.4236
▁Somit	-11.4236
▁Währungsunion	-11.4239
▁indoor	-11.4241
▁Uni	-11.4241
cade	-11.4241
▁Kat	-11.4241
▁Process	-11.4242
stabil	-11.4243
▁usage	-11.4243
EST	-11.4244
blich	-11.4245
▁semi	-11.4247
▁individually	-11.4248
▁bewegt	-11.4248
▁fein	-11.4248
▁Persönlichkeit	-11.4252
▁jurisdiction	-11.4253
▁tough	-11.4256
▁prompt	-11.4256
▁targeted	-11.426
cca	-11.426
▁Ausbau	-11.426
▁Argument	-11.4261
HO	-11.4262
▁(5	-11.4264
▁Niederlanden	-11.4265
▁grossen	-11.4266
▁arising	-11.4267
▁fairly	-11.4269
▁Außenminister	-11.4271
IV	-11.4271
lib	-11.4271
RT	-11.4271
ering	-11.4273
▁motorway	-11.4277
aktivitäten	-11.4278
gus	-11.4278
para	-11.4279
▁überlassen	-11.4281
asi	-11.4283
wich	-11.4284
▁Galerie	-11.4284
▁gesetzlichen	-11.4285
ält	-11.4288
willig	-11.4288
▁engaged	-11.429
ipp	-11.429
▁Olympic	-11.429
▁Labour	-11.4291
▁Dol	-11.4291
▁tausend	-11.4291
erie	-11.4291
▁golden	-11.4293
▁spanische	-11.4297
▁examination	-11.4297
▁türkischen	-11.4298
▁correspond	-11.4298
▁Bühne	-11.4299
▁HIV	-11.43
▁appropriations	-11.4301
konferenz	-11.4303
cin	-11.4304
rap	-11.4305
▁await	-11.4306
▁Cala	-11.4307
▁row	-11.4307
▁Haben	-11.4309
▁(10	-11.4309
gur	-11.4311
rig	-11.4311
▁authentic	-11.4315
▁Consequently	-11.4318
▁Mill	-11.4319
Wirtschaftskrise	-11.4321
master	-11.4323
▁trat	-11.4324
lets	-11.4324
▁Leipzig	-11.4325
▁Quelle	-11.4328
▁catalogue	-11.4328
▁Jahrzehnten	-11.4329
▁homes	-11.433
▁Gall	-11.433
ausgaben	-11.4331
▁Kategorien	-11.4332
vir	-11.4334
▁klassischen	-11.4335
Car	-11.4335
deck	-11.4335
▁Kap	-11.4337
▁bestellen	-11.4337
▁factory	-11.4337
▁Übergangs	-11.4338
/2	-11.4338
▁kompetent	-11.4338
akte	-11.4339
▁favor	-11.4343
gin	-11.4343
▁Laser	-11.4343
▁Übernahme	-11.4345
▁Department	-11.4345
UT	-11.4346
▁untersuchen	-11.4347
57	-11.4347
▁weltweite	-11.4348
▁Genau	-11.4349
▁Effekt	-11.435
▁Debatten	-11.435
folgen	-11.435
DF	-11.4351
▁Todesstrafe	-11.4352
tore	-11.4353
▁Easy	-11.4354
▁gegenwärtige	-11.4356
▁2-	-11.4356
KOM	-11.4356
try	-11.4357
clus	-11.4358
uc	-11.4358
▁Investoren	-11.4358
▁erbaut	-11.436
▁unmittelbarer	-11.4361
iche	-11.4362
▁Pur	-11.4365
▁leiten	-11.4365
sicherung	-11.4365
400	-11.4365
Energieeffizienz	-11.4365
▁zuverlässig	-11.4367
fluss	-11.4367
nig	-11.4368
▁normalen	-11.4369
▁Beseitigung	-11.4373
Th	-11.4374
▁frage	-11.4376
motiv	-11.4376
▁Wesentlichen	-11.4378
fund	-11.438
▁Wett	-11.438
▁Syn	-11.4382
▁Einwanderer	-11.4383
▁twice	-11.4387
vy	-11.4389
▁egal	-11.439
logy	-11.439
fle	-11.4392
▁Leit	-11.4394
▁Has	-11.4395
isi	-11.4396
artig	-11.4397
▁gepflegt	-11.4397
▁Profil	-11.4398
▁nord	-11.44
▁Erwerb	-11.44
▁processed	-11.4401
mu	-11.4403
▁phenomenon	-11.4404
▁Sierra	-11.4404
▁blu	-11.4407
▁herrliche	-11.4408
TU	-11.4411
▁Bou	-11.4413
▁keinem	-11.4414
▁Society	-11.4414
▁erzeugen	-11.4414
▁facts	-11.4415
▁Leg	-11.4415
körper	-11.4417
even	-11.4418
ways	-11.442
▁hierzu	-11.4421
▁Sieg	-11.4421
▁dei	-11.4422
▁ordered	-11.4422
generation	-11.4423
DC	-11.4425
▁diplomatic	-11.4425
rupp	-11.4425
▁bereitet	-11.4427
▁Bol	-11.4427
▁normally	-11.4427
▁smart	-11.4428
temp	-11.4429
▁referring	-11.443
▁illegale	-11.443
▁30%	-11.4431
geschwindigkeit	-11.4432
▁reserved	-11.4432
▁spell	-11.4433
▁Sk	-11.4433
zip	-11.4433
▁spreche	-11.4435
▁URL	-11.4436
▁entering	-11.4436
▁besetzt	-11.4436
bestand	-11.4436
61	-11.444
stock	-11.4441
▁Fast	-11.4441
▁computers	-11.4442
ographie	-11.4447
▁eco	-11.4448
▁gesichert	-11.4449
▁Laden	-11.4449
▁Filme	-11.4451
▁Linien	-11.4452
alt	-11.4453
▁Nikon	-11.4454
verein	-11.4454
▁consequence	-11.4454
▁verweisen	-11.4455
▁Tau	-11.4456
▁Roll	-11.4458
tory	-11.4458
▁peoples	-11.4459
▁Gross	-11.4461
▁Tonnen	-11.4461
Find	-11.4462
FS	-11.4462
▁gleichermaßen	-11.4463
▁Big	-11.4465
▁presenting	-11.4465
▁Andererseits	-11.4466
▁feet	-11.4467
▁layout	-11.4467
Bar	-11.4469
▁griechischen	-11.4474
▁Hinweise	-11.4476
▁Osteuropa	-11.448
▁publish	-11.4482
▁Helsinki	-11.4484
▁Doppelzimmer	-11.4484
▁sonstige	-11.4485
▁Ergänzung	-11.4487
▁newsletter	-11.4487
▁Erste	-11.4488
▁schweren	-11.449
▁pump	-11.449
vertreter	-11.4491
▁anzubieten	-11.4491
▁liable	-11.4492
▁wirken	-11.4492
▁promised	-11.4493
▁Betriebssystem	-11.4498
▁angeblich	-11.4498
▁Notes	-11.45
lik	-11.45
▁printed	-11.4501
heben	-11.4502
lum	-11.4504
▁Köln	-11.4505
▁herrlichen	-11.4505
▁Öko	-11.4511
▁Segel	-11.4512
mid	-11.4513
▁Amts	-11.4513
AX	-11.4517
▁cancel	-11.4517
▁geschätzt	-11.4519
▁Senkung	-11.4519
▁urgently	-11.4519
▁welcomes	-11.4519
▁Gleich	-11.452
ister	-11.452
rates	-11.4521
▁damages	-11.4525
▁toward	-11.4532
▁EM	-11.4533
jour	-11.4534
▁Bereits	-11.4534
▁Internal	-11.4536
▁Französisch	-11.4536
▁discipline	-11.4536
▁erstklassige	-11.4536
▁Bosnia	-11.4537
#	-11.4537
▁occurred	-11.4537
▁Jerusalem	-11.454
verbrauch	-11.4541
reiche	-11.4542
▁medicine	-11.4543
städte	-11.4544
▁efficiently	-11.4544
sperr	-11.4544
▁kilometres	-11.4544
wirkung	-11.4546
▁convenience	-11.4547
▁auffordern	-11.4547
▁46	-11.4549
kret	-11.4549
▁Empire	-11.4554
▁Nazi	-11.4554
▁Million	-11.4554
▁aufbauen	-11.4557
▁Voraus	-11.4559
▁Saal	-11.4559
▁süd	-11.456
▁evident	-11.4564
▁Bewusstsein	-11.4568
▁Sto	-11.4568
▁schedule	-11.4569
tags	-11.457
6%	-11.457
▁Protest	-11.4572
izer	-11.4572
▁profits	-11.4573
81	-11.4573
▁exploit	-11.4574
52	-11.4576
▁Kla	-11.4579
▁GPS	-11.458
▁streng	-11.4583
▁Classic	-11.4584
▁Jugendlichen	-11.4585
▁exzellente	-11.4585
which	-11.4585
▁Finanzielle	-11.4586
phone	-11.4588
angebote	-11.4588
▁Erbe	-11.4589
▁oldest	-11.4593
▁zulassen	-11.4594
▁fault	-11.4594
▁operator	-11.4594
Bereich	-11.4597
scher	-11.4597
▁winning	-11.4598
▁Dresden	-11.4599
just	-11.46
▁fin	-11.4601
▁Drittel	-11.4602
ali	-11.4603
▁formats	-11.4604
▁scientists	-11.4604
▁pos	-11.4605
▁plug	-11.4606
▁depth	-11.4607
▁stages	-11.4608
▁strictly	-11.4609
▁enge	-11.4611
rechnung	-11.4616
▁2010,	-11.4617
▁Dingen	-11.4617
▁freut	-11.4619
senden	-11.462
▁hinein	-11.462
▁mouse	-11.4622
anforderungen	-11.4624
▁Rhein	-11.4625
▁Lastly	-11.4625
dischen	-11.4627
▁Kino	-11.4627
▁Jesus	-11.4631
▁succeeded	-11.4632
nc	-11.4635
▁File	-11.4636
▁Program	-11.4638
▁Quark	-11.4638
▁Zauber	-11.4639
▁Strecke	-11.4639
▁tracks	-11.464
stätten	-11.4641
▁68	-11.4644
▁holds	-11.4647
ström	-11.4647
▁het	-11.4647
8%	-11.4648
▁elektronische	-11.4649
fully	-11.4649
▁Auseinandersetz	-11.465
▁Brok	-11.465
▁Borg	-11.4652
kle	-11.4652
oid	-11.4652
▁integrierten	-11.4652
▁Wand	-11.4653
▁Eröffnung	-11.4654
▁angenehme	-11.4654
inger	-11.4654
speed	-11.4654
oxid	-11.4658
gebühren	-11.4658
▁RO	-11.4659
händler	-11.466
▁denjenigen	-11.466
▁destroy	-11.466
▁emerge	-11.4661
▁essentially	-11.4662
▁ended	-11.4662
▁acquired	-11.4663
▁legend	-11.4666
▁Pet	-11.4666
▁highlighted	-11.4669
▁Wu	-11.4669
gefügt	-11.467
▁coherent	-11.467
▁brother	-11.467
flow	-11.4671
verhältnisse	-11.4671
ständ	-11.4672
ures	-11.4673
▁highlights	-11.4673
▁Abteilung	-11.4673
▁Mädchen	-11.4674
▁Nachmittag	-11.4674
▁prospects	-11.4674
▁Qual	-11.4674
▁IS	-11.4674
▁incorporated	-11.4675
▁explanation	-11.4676
▁wert	-11.4678
▁intends	-11.4679
▁emotional	-11.468
rak	-11.468
ivilgesellschaft	-11.4681
▁hielt	-11.4683
▁Ablauf	-11.4685
own	-11.4685
AI	-11.4687
▁Produktivität	-11.4688
▁Hal	-11.4689
▁lasting	-11.469
▁combines	-11.4691
▁admit	-11.4693
▁Schlaf	-11.4694
▁Explorer	-11.4695
▁Umweltfragen	-11.4695
html	-11.4695
▁Frühjahr	-11.4695
jan	-11.4697
▁gewöhnlich	-11.4698
▁beinhalten	-11.4699
▁craft	-11.47
assembl	-11.4702
▁schätzen	-11.4702
▁revenue	-11.4705
▁Journalisten	-11.4707
▁52	-11.4708
▁Product	-11.4708
uro	-11.471
▁causing	-11.471
versicherung	-11.4711
▁Schalt	-11.4711
▁müsste	-11.4713
stä	-11.4715
▁Vorgehensweise	-11.4717
▁mobil	-11.4718
▁floors	-11.4719
▁Schicksal	-11.472
-5	-11.4721
ggio	-11.4722
comp	-11.4722
▁sophisticated	-11.4724
▁Veranstaltungs	-11.4725
modul	-11.4725
Cha	-11.4726
▁undertake	-11.4726
▁Representative	-11.4727
verlust	-11.473
▁schnellen	-11.4731
Wo	-11.4732
▁CON	-11.4733
ibly	-11.4734
▁immense	-11.4736
itter	-11.4737
▁shot	-11.4739
▁1:	-11.474
▁RI	-11.4741
▁Children	-11.4742
▁socio	-11.4743
▁digitalen	-11.4744
▁Haiti	-11.4745
▁digitale	-11.4745
schreib	-11.4745
▁niedrig	-11.4745
sweise	-11.4745
▁beenden	-11.4748
▁erworben	-11.4749
▁radikal	-11.4749
stärke	-11.4752
▁resulted	-11.4752
mond	-11.4753
bol	-11.4754
rock	-11.4754
aka	-11.4755
▁ease	-11.4756
sec	-11.4756
▁ki	-11.4756
▁producer	-11.4756
Spiel	-11.4757
▁sicheren	-11.4758
▁DO	-11.4759
▁Beurteilung	-11.4759
under	-11.476
elemente	-11.476
Net	-11.476
▁gradually	-11.4763
▁cultures	-11.4764
▁trace	-11.4766
cla	-11.4767
machen	-11.4767
ę	-11.477
▁modify	-11.4771
meinschaftlichen	-11.4772
▁offiziell	-11.4773
▁Bedürfnissen	-11.4773
▁mögen	-11.4774
▁engines	-11.4775
▁SQL	-11.4775
▁throw	-11.4776
vio	-11.4778
▁Vertrages	-11.4778
▁Mechanismen	-11.478
82	-11.4783
▁liquid	-11.4783
▁Fassung	-11.4784
analyse	-11.4787
mpel	-11.4788
▁Beachtung	-11.4789
▁exceed	-11.4789
▁Kara	-11.4789
▁Cooperation	-11.4789
▁Pas	-11.4791
▁calendar	-11.4792
▁troops	-11.4792
▁Mehrwertsteuer	-11.4792
arbeiter	-11.4793
▁virtually	-11.4794
verletzungen	-11.4795
87	-11.4798
Ra	-11.4799
1⁄4	-11.4799
▁Further	-11.4799
▁declare	-11.48
▁85	-11.4802
rian	-11.4803
▁festzustellen	-11.4803
▁senken	-11.4804
Stunden	-11.4804
▁09	-11.4805
▁Coll	-11.4806
schä	-11.4807
▁Using	-11.4809
▁Kunststoff	-11.481
stieg	-11.4811
nica	-11.4813
▁Bier	-11.4815
▁Theorie	-11.4816
▁2005,	-11.4816
▁widespread	-11.4817
▁Anhörung	-11.4817
▁Desktop	-11.4817
▁Airlines	-11.4817
▁Argumente	-11.4818
some	-11.4819
▁bestand	-11.482
▁conventional	-11.4821
▁auseinander	-11.4821
▁cal	-11.4822
▁adjust	-11.4823
usch	-11.4823
▁Verwirklichung	-11.4824
▁Bevor	-11.4826
▁coordinate	-11.4826
▁negativen	-11.4826
▁jo	-11.4827
ange	-11.4827
hes	-11.4828
▁circle	-11.4828
[	-11.4828
▁gelangt	-11.4828
▁deserve	-11.4831
instrumente	-11.4831
▁Source	-11.4832
▁unnötig	-11.4836
▁Carl	-11.4837
▁anzunehmen	-11.4838
▁teilt	-11.4838
mag	-11.4838
▁mangelnde	-11.4839
▁achievement	-11.4842
▁Joint	-11.4842
▁prisoners	-11.4843
▁attached	-11.4843
▁VIP	-11.4845
▁twin	-11.4846
will	-11.4847
▁Cookies	-11.4847
▁hence	-11.4849
▁thorough	-11.485
▁bathrooms	-11.485
balance	-11.485
▁kümmern	-11.4853
▁aktiviert	-11.4853
nge	-11.4854
start	-11.4858
▁threats	-11.4858
wir	-11.4859
▁strikt	-11.486
▁aviation	-11.486
▁reisen	-11.4861
▁kontinuierlich	-11.4862
▁yes	-11.4862
▁har	-11.4863
▁enthalt	-11.4865
Bu	-11.4866
▁leichte	-11.4867
▁Ansprüche	-11.4868
▁announce	-11.4871
▁bevorzugt	-11.4871
etto	-11.4871
▁encouraged	-11.4872
gent	-11.4872
▁Ostsee	-11.4872
▁arrest	-11.4873
62	-11.4874
büro	-11.4875
▁Fläche	-11.4876
▁seats	-11.4876
▁occupation	-11.4877
pm	-11.4877
▁47	-11.4878
▁iPod	-11.4878
▁treatments	-11.4878
▁Danish	-11.4879
▁argue	-11.488
▁Mond	-11.4882
▁survive	-11.4886
▁Sy	-11.4887
▁chairman	-11.4888
▁Lesen	-11.4889
▁Ferr	-11.4891
▁ansprechen	-11.4895
▁endeavour	-11.4896
ying	-11.4897
▁irre	-11.4898
2005	-11.49
▁bedeutenden	-11.4902
▁Constitutional	-11.4902
▁environmentally	-11.4904
▁Authority	-11.4905
▁Long	-11.4905
dring	-11.4907
▁Hy	-11.4907
▁participating	-11.4908
Kohäsionspolitik	-11.4909
gle	-11.491
▁alongside	-11.491
reihe	-11.4912
produkten	-11.4912
▁Treaties	-11.4915
nutzung	-11.4915
fan	-11.4915
53	-11.4915
▁Aussage	-11.4915
etz	-11.4916
▁Kre	-11.4916
▁agents	-11.4917
▁1.5	-11.4917
Ta	-11.4918
▁detect	-11.4921
▁Obst	-11.4921
▁Search	-11.4923
▁Ersatz	-11.4923
▁Albert	-11.4923
▁Gebühren	-11.4924
▁meals	-11.4924
▁surprised	-11.4924
▁Früh	-11.4925
izi	-11.4927
▁Por	-11.4927
▁specialists	-11.4928
▁restricted	-11.4928
▁Venedig	-11.4929
▁Wirksamkeit	-11.4929
aktion	-11.493
▁eigener	-11.4932
mine	-11.4934
▁jüngste	-11.4934
▁41	-11.4937
▁Sobald	-11.494
▁serving	-11.4941
▁vieles	-11.4941
▁Tools	-11.4942
▁ratio	-11.4943
▁KDE	-11.4944
leid	-11.4945
bet	-11.4945
▁carte	-11.4947
▁Dänemark	-11.4947
▁Zuverlässigkeit	-11.4947
▁relates	-11.4948
▁wirkliche	-11.495
▁gewidmet	-11.4955
▁moralische	-11.4955
▁begins	-11.4957
▁Errichtung	-11.4958
1999	-11.4959
Linux	-11.496
▁candidates	-11.496
▁premium	-11.4962
pur	-11.4962
▁Gr	-11.4962
phon	-11.4963
▁wechseln	-11.4964
▁convention	-11.4965
▁Burma	-11.4965
▁Tarif	-11.4966
▁Luftfahrt	-11.4966
▁Wohnzimmer	-11.4967
▁Visit	-11.4967
▁Instruments	-11.4968
л	-11.4969
▁interne	-11.4973
▁aufgestellt	-11.4973
▁Language	-11.4973
▁bloß	-11.4973
▁stelle	-11.4976
▁è	-11.4978
▁utmost	-11.498
▁Kennzeichnung	-11.498
▁spite	-11.4981
handels	-11.4982
▁vertraut	-11.4985
Mon	-11.4986
▁entscheidenden	-11.4988
▁baby	-11.4989
▁Low	-11.499
luft	-11.4991
Go	-11.4991
fte	-11.4991
▁Lithuania	-11.4991
▁hidden	-11.4991
▁Truppen	-11.4992
▁soeben	-11.4992
Tre	-11.4992
▁Hunger	-11.4992
▁Düsseldorf	-11.4999
▁beeinflussen	-11.4999
▁harmful	-11.5
aya	-11.5
vorschriften	-11.5001
world	-11.5001
▁Greens	-11.5002
decken	-11.5004
▁fly	-11.5005
duct	-11.5008
▁Mitentscheidung	-11.5008
▁Trend	-11.501
▁Lau	-11.501
▁observed	-11.5011
▁accommodate	-11.5013
▁Track	-11.5015
conf	-11.5016
▁Vorrang	-11.5016
dateien	-11.5017
▁Vertretern	-11.5018
iver	-11.5018
▁komplexe	-11.502
▁müssten	-11.5021
▁dialog	-11.5021
▁Versicherungs	-11.5021
▁Adam	-11.5022
▁ber	-11.5022
79	-11.5024
▁Class	-11.5024
▁Edinburgh	-11.5024
▁split	-11.5025
▁Konvention	-11.5026
PR	-11.5028
▁Nokia	-11.5028
▁teachers	-11.5029
güter	-11.5029
▁Schwa	-11.503
▁ausgegeben	-11.5031
Tag	-11.5031
▁kit	-11.5031
wettbewerbsfähig	-11.5032
▁Oberfläche	-11.5033
▁Fire	-11.5033
gol	-11.5033
uren	-11.5034
▁Marine	-11.5035
wähl	-11.5035
▁angemessenen	-11.5036
▁oberste	-11.5036
artige	-11.5038
▁Camping	-11.5038
▁contextual	-11.5039
makers	-11.5039
zutreten	-11.504
né	-11.5041
lb	-11.5042
▁affects	-11.5042
▁modification	-11.5043
▁typischen	-11.5044
fit	-11.5045
▁assurance	-11.5047
▁alarm	-11.5048
▁anzuwenden	-11.505
▁glaubt	-11.505
▁Autos	-11.505
otic	-11.5051
▁electrical	-11.5053
▁prominent	-11.5054
▁Spezialitäten	-11.5054
phase	-11.5054
▁frequent	-11.5055
▁Slovakia	-11.5055
rahmen	-11.5056
▁deutliche	-11.5056
▁marine	-11.5056
▁Acht	-11.5057
▁Cuba	-11.5057
▁einstimmig	-11.5057
▁breath	-11.5058
▁Florence	-11.5058
▁essen	-11.5058
Her	-11.5059
core	-11.506
▁associations	-11.506
adi	-11.5061
▁wahre	-11.5061
▁Präsenz	-11.5061
▁irischen	-11.5062
▁Appartements	-11.5062
▁jedenfalls	-11.5063
metric	-11.5063
▁Ausarbeitung	-11.5066
▁Lin	-11.5066
therapie	-11.5067
▁capabilities	-11.5069
▁stories	-11.5069
▁subscribe	-11.5069
▁records	-11.5069
yard	-11.507
3)	-11.507
▁versehen	-11.5071
▁Philosophie	-11.5071
▁ausüben	-11.5072
zio	-11.5073
▁armed	-11.5077
insel	-11.5077
▁wachsenden	-11.5078
▁convergence	-11.508
▁älteren	-11.508
▁glücklich	-11.5081
Es	-11.5081
63	-11.5082
▁Come	-11.5082
▁Urheberrecht	-11.5082
software	-11.5082
▁schwere	-11.5083
▁mod	-11.5087
▁empty	-11.5088
tzt	-11.5089
▁Suites	-11.5089
▁falsche	-11.5091
durchschnittlich	-11.5091
▁household	-11.5093
iterentwicklung	-11.5093
▁purely	-11.5093
mauer	-11.5093
▁WE	-11.5094
▁Level	-11.5094
▁editor	-11.5096
4%	-11.5096
▁zurückzu	-11.5097
▁einst	-11.5097
▁gene	-11.51
▁grown	-11.5101
▁boy	-11.5101
▁Dir	-11.5101
ago	-11.5105
▁praktischen	-11.5105
wohn	-11.5105
▁Wesen	-11.5105
vie	-11.5108
▁Ford	-11.5108
üt	-11.5109
▁sweet	-11.511
▁realisiert	-11.5111
PM	-11.5111
Team	-11.5112
Gruppe	-11.5112
▁simplify	-11.5117
▁Bewohner	-11.5117
mir	-11.5117
group	-11.5118
zia	-11.5118
▁specialized	-11.512
▁Souveränität	-11.5121
▁12.00	-11.5123
▁vermittelt	-11.5124
▁wertvolle	-11.5125
▁30.	-11.5126
▁Konzentration	-11.5128
▁integral	-11.5128
acy	-11.5128
▁wesentlicher	-11.5129
TT	-11.513
cultural	-11.5131
▁ausgestattete	-11.5131
▁blocks	-11.5132
verhältnis	-11.5132
▁Zivil	-11.5132
▁pin	-11.5132
sstaatlichkeit	-11.5133
fangen	-11.5134
pla	-11.5135
▁Jazz	-11.5138
▁Aufzug	-11.5138
▁Strände	-11.514
bekämpfung	-11.514
▁Blair	-11.5144
alien	-11.5145
terie	-11.5145
▁graphics	-11.5147
ibility	-11.5148
▁adding	-11.5149
▁steigern	-11.515
▁Ergebnissen	-11.5151
▁fla	-11.5152
▁passion	-11.5153
▁©	-11.5154
▁produces	-11.5156
▁zweitens	-11.5156
▁Spitze	-11.5158
▁Force	-11.5158
▁Seminar	-11.5158
agen	-11.5159
▁secondly	-11.5159
▁weisen	-11.5159
ques	-11.5162
▁Ufer	-11.5162
nar	-11.5163
▁HA	-11.5164
▁Bug	-11.5167
Smoking	-11.5169
ни	-11.5173
▁Change	-11.5173
▁inspired	-11.5175
▁accidents	-11.5175
▁Lokal	-11.5175
▁Terms	-11.5176
▁expense	-11.5176
▁vollen	-11.5176
▁unglaublich	-11.5176
▁quotas	-11.5178
▁festlegen	-11.5178
▁bezeichnen	-11.5179
▁passing	-11.5182
▁Berechnung	-11.5183
▁splendid	-11.5184
▁Auflösung	-11.5184
hafen	-11.5187
▁Allgemein	-11.5188
▁writer	-11.5188
▁übermittelt	-11.5188
▁Resultat	-11.519
MT	-11.5191
▁Copyright	-11.5191
▁Georgien	-11.5192
▁(1)	-11.5194
▁Schulz	-11.5198
▁Zeitplan	-11.5198
▁bedauerlich	-11.5199
▁thumbnail	-11.5199
Enterprise	-11.5202
▁Empfänger	-11.5203
▁oftmals	-11.5203
▁Kenn	-11.5207
▁dollar	-11.5207
▁2000,	-11.5207
▁eindeutige	-11.5211
▁stayed	-11.5212
iel	-11.5212
▁vorzunehmen	-11.5214
WE	-11.5215
▁defeat	-11.5216
▁langfristigen	-11.5217
▁Durchsetzung	-11.522
▁gesammelt	-11.5221
▁hast	-11.5223
▁$1	-11.5224
▁victory	-11.5225
mente	-11.5226
▁adds	-11.5226
▁Palette	-11.5229
▁shore	-11.523
▁ignore	-11.5231
strich	-11.5232
▁objektiv	-11.5233
standen	-11.5234
▁längst	-11.5236
▁fat	-11.5236
grün	-11.5237
▁estimated	-11.5239
iker	-11.5239
verarbeitung	-11.524
▁Legislativ	-11.524
tiert	-11.5241
▁Route	-11.5241
gelöst	-11.5245
EI	-11.5245
▁Lieferanten	-11.5246
quellen	-11.5247
behörde	-11.525
▁Spielen	-11.5251
▁abgegeben	-11.5254
▁medieval	-11.5255
▁humanitären	-11.5255
esse	-11.5256
▁gew	-11.5257
▁Wunder	-11.5258
tina	-11.5258
▁initially	-11.5258
▁ausreichende	-11.5259
▁Premier	-11.5259
flächen	-11.5259
iden	-11.5259
Shop	-11.5259
▁Ei	-11.5264
▁wooden	-11.5264
▁1950	-11.5266
▁Run	-11.5266
▁profession	-11.5267
blo	-11.5268
▁GE	-11.5269
▁Referendum	-11.527
▁Vorstellungen	-11.5272
▁seeks	-11.5272
▁49	-11.5274
ground	-11.5274
▁beantwortet	-11.5274
▁einzelstaatlich	-11.5274
pil	-11.5275
chtig	-11.5276
▁Three	-11.5278
uche	-11.5279
iller	-11.5279
▁Besuchen	-11.5279
▁raising	-11.528
▁behindert	-11.5281
▁Sä	-11.5281
▁ansehen	-11.5282
institutionellen	-11.5285
▁ausgewogene	-11.5287
▁oppose	-11.5288
▁Siemens	-11.5289
▁Beschluß	-11.5291
ł	-11.5291
ressourcen	-11.5293
▁Vertretung	-11.5293
▁Subject	-11.5293
▁violation	-11.5294
▁erwiesen	-11.5295
▁chemische	-11.5298
▁describe	-11.5301
▁Events	-11.5303
losigkeit	-11.5303
▁Bomb	-11.5304
▁tranquil	-11.5304
strahl	-11.5304
ulate	-11.5304
▁marks	-11.5305
▁Räume	-11.5307
tribu	-11.5307
ober	-11.5308
▁negotiation	-11.5309
б	-11.5311
▁assigned	-11.5311
ë	-11.5312
▁gehe	-11.5312
▁mineral	-11.5313
4)	-11.5314
oriented	-11.5315
▁Anträge	-11.5316
▁realer	-11.5317
[...]
